[PAD]
[CLS]
[SEP]
[MASK]
[UNK]
!
"
#
$
%
&
'
)
*
+
,
-
.
/
0
1
2
3
4
5
6
7
8
9
:
;
<
=
>
?
[
]
^
_
`
a
b
c
d
e
f
g
h
i
j
k
l
m
n
o
p
q
r
s
t
u
v
w
x
y
z
{
|
}
~
£
¥
«
·
¹
à
á
â
ä
ç
è
é
ê
í
ñ
ó
õ
ù
ú
û
ü
##t
##o
##m
##p
##a
##n
##u
##s
##r
##q
##e
##z
##l
##c
##h
##i
##g
##v
##d
##f
##b
##y
##k
##x
##í
##7
##2
##w
##9
##1
##3
##j
##0
##5
##8
##6
##4
##â
##é
##ü
##è
##ç
##û
##ä
##ñ
##¹
##ú
##ù
##á
##à
##ó
##õ
##ê
th
##ou
you
##er
##in
##at
the
##on
##an
to
##ing
##ll
wh
##or
##en
##es
an
##ed
it
##ow
##ar
##is
##et
##ot
##it
##om
##as
##re
in
that
##ve
##ut
##ay
he
of
and
##ere
re
what
be
we
me
ha
do
##le
##id
##st
##gh
on
##ld
is
go
##ck
sh
##ke
##se
##al
##ght
for
##im
don
kn
st
li
this
##ver
know
your
##ch
not
##ce
was
##ad
have
my
##ight
no
##ust
##ir
##ould
##ith
##ome
##am
##ant
##ent
##ee
can
with
##ill
##oo
are
##ur
##all
but
##out
##ly
ne
they
##ion
so
ab
get
##ct
did
all
just
like
##ter
##hing
about
##od
there
out
##ink
want
##ri
##her
as
##nd
got
##ea
ll
she
ch
how
here
if
su
pr
##op
think
up
at
him
##ry
##ake
##one
any
##ic
##ell
##and
##ie
##ess
ve
##pp
##ook
##ra
##est
who
wor
one
##un
de
fr
some
##ack
her
see
why
well
now
al
##ind
##ore
right
##il
going
say
ever
##us
look
##art
would
sa
##ive
##ally
man
or
tell
##ge
##ain
lo
us
##ard
pl
##ig
##ist
where
yes
good
tim
oh
##uck
##ul
##alk
se
could
##os
when
##if
gu
##ame
ex
##ol
his
##ong
ar
##ate
com
##ven
##ast
from
som
##end
been
thing
were
##ers
somet
##ab
yea
will
yeah
##ound
time
come
##au
##way
back
mean
##ob
##ak
##ear
didn
##na
let
##ine
sp
con
##our
them
##um
talk
br
##itt
every
tw
had
##ick
##ice
off
too
##ation
##thing
##own
than
then
may
##lf
car
something
am
##ous
tr
never
take
##ap
##other
ag
cl
##ose
call
le
way
mr
fuck
does
en
work
##ough
happ
ok
need
##ty
##ort
really
##ody
##ect
make
##be
over
down
pe
should
af
##ase
qu
##ittle
##ery
dr
little
more
##em
##oy
mo
un
##ought
gon
bet
bl
by
##ace
gonna
sure
our
okay
said
guy
mu
##ople
people
has
##el
kill
##ause
##ber
mar
int
bu
co
##ide
##body
##ag
two
##iss
sc
maybe
won
very
##th
only
happen
##ff
hu
##self
##reat
und
hell
bec
much
##oney
##eel
day
##fe
##ree
under
god
even
wr
anything
##ew
year
sor
doing
##lie
##ther
##ving
##ure
##ish
ask
sorry
thought
love
give
other
##ite
##ity
hel
##ies
feel
##ble
gr
##ting
fir
night
ro
##riend
new
jo
wa
##act
thank
because
try
nothing
help
##ning
##eep
again
long
##ip
##fore
into
im
##ment
find
sir
before
##wn
##ather
belie
must
##ue
##ach
after
ple
life
gir
still
##ich
put
told
rem
money
##pl
wait
##ang
these
em
##der
po
last
first
##ady
lea
##ade
hey
around
##ass
##ta
##ire
##ance
things
el
friend
kind
thr
old
kid
believe
##ud
##per
prob
cr
those
girl
better
keep
cou
##iz
##ves
##age
ad
name
##ways
sw
part
big
##ood
sm
list
##ool
isn
##pt
##day
ma
always
years
ho
boy
##get
##oss
shit
min
##atch
##ence
please
hi
real
great
home
uh
away
lot
place
per
underst
doesn
##ved
mon
##ile
ac
##urn
cour
##ft
miss
bad
stop
fl
##ix
their
ass
##ried
fa
act
##ise
##int
everything
listen
##ci
understand
supp
hand
##ouse
play
remem
care
##og
start
##ord
remember
ph
stay
##ild
three
##ath
run
##ory
sec
##ep
bus
##ank
hear
dis
id
happened
huh
##ond
wouldn
##ull
wrong
##qu
stu
##able
might
guess
dead
##iff
##tain
cra
tra
talking
minut
##een
show
mother
made
else
##atter
tom
##man
##red
wom
father
##ious
leave
##ia
house
##ny
mind
##ater
##ful
mor
##ey
##amn
ser
course
##aking
wanted
head
la
##sh
##pr
##oth
own
ain
dad
nice
done
str
someone
##ek
inter
##ans
getting
res
##ock
came
gotta
through
job
enough
sch
yourself
mom
par
wasn
five
another
##port
pret
ton
ins
pro
bo
fine
##pect
##ions
ya
##ict
being
saw
world
##lem
##ac
##orr
left
room
sl
##are
week
##akes
fucking
rec
##itch
char
hard
app
##erson
cont
##ign
##ange
##nt
##dy
knew
##iness
meet
di
went
heard
war
looking
matter
trying
##ary
##orm
comm
##hn
son
##ated
##ub
same
##ner
fun
che
which
##ple
haven
tonight
diff
hur
##ro
##ever
seen
##ife
##ctor
coming
four
##ph
##enty
guys
john
turn
bre
pretty
six
bab
whole
person
pol
##osed
att
gl
read
##mm
business
##pen
seem
##ons
plan
live
watch
quest
acc
fo
fin
cle
te
walk
##ars
##gg
fam
##ince
used
##orrow
##ope
word
many
har
##ian
called
thanks
best
##leep
##ily
ah
tri
found
hour
pay
problem
ter
pre
deal
##ible
morning
##ndred
comp
hundred
##ister
inv
##ave
hello
##ident
##my
most
idea
des
couldn
killed
##xt
chr
##av
says
men
wife
##wh
##ually
cap
ten
##ett
jack
use
woman
##zy
stuff
next
sit
##ream
##les
far
school
sur
##ents
dri
myself
tomorrow
pa
saying
differ
once
bar
without
##orn
bring
##ash
##ably
cut
sen
end
while
##ors
hold
##ical
##anc
sho
wonder
##ult
jes
today
gi
few
sound
yet
baby
##gether
ed
pick
ago
met
##aught
pres
##ail
brother
damn
together
drink
##ason
point
##uth
child
somebody
since
##aut
days
open
sleep
##anna
took
rest
fif
##ready
doctor
probably
thir
such
##ling
aren
##ead
eas
gone
exc
christ
already
doll
pri
crazy
count
ey
case
eat
late
alone
exact
anyone
thous
stand
jesus
half
dec
ap
thousand
hot
gun
nobody
##eak
book
##raid
wants
break
check
die
fig
beaut
twenty
month
##sw
dar
##ouble
friends
##son
thinking
hurt
unt
##eet
afraid
forget
high
##ng
anyway
##ize
##ition
minute
prom
mrs
##where
law
interest
##air
second
supposed
ev
hope
looks
cop
##ower
##pe
##ib
rel
bill
##right
sk
exactly
hit
mill
##oke
shot
##ost
young
wanna
soon
family
##ying
face
hon
lost
spe
until
##unch
knows
eight
##amp
makes
set
story
cause
##cept
compl
town
working
##ness
minutes
bed
fight
gen
num
##use
police
gra
aw
ob
poss
##ger
##gin
##less
move
question
inf
true
##by
##ings
##iful
married
##ott
answ
everybody
kids
##vel
##ump
##rew
##ual
worry
asked
##ug
##ating
frank
bull
sim
##ither
godd
gave
having
##az
ear
je
pass
different
ready
##ork
beautiful
sometim
##ared
##ations
actually
happy
wish
##ane
shut
conf
##ah
bit
air
col
alright
least
luck
##ert
mur
anybody
heart
##no
phone
sign
beh
times
trust
##ied
##ress
##llow
trouble
##ret
##iv
light
door
dream
expl
mil
##enc
sy
ind
death
##ont
gets
##ier
##cial
bra
hate
mad
hum
##ial
cons
quite
hun
both
blood
##land
shoot
ste
easy
ge
del
each
star
##uss
import
taking
##ned
reason
##ired
serious
pull
##ates
cor
##ely
chance
##cc
yours
##ames
fact
inst
##unk
send
##vie
close
black
##more
##ins
speak
##ne
##ird
din
whatever
fuckin
perf
honey
captain
det
expect
eng
##vor
making
inc
ben
change
fire
##reet
answer
##ention
dep
sort
pict
disc
##iver
goes
hours
side
##io
##outh
telling
news
couple
##ens
dollars
important
truth
##ren
##ouch
follow
mine
water
##ison
buy
lear
lie
sometimes
##ding
anymore
##app
##ertain
sick
##its
everyone
funny
body
free
##ok
suppose
number
sex
power
certain
##uct
alm
##ime
goddamn
##up
##ley
##olog
coll
adm
comes
against
mess
rid
forg
sn
ret
sal
pap
tried
##uc
rob
##ton
##ward
stra
def
hus
bur
cal
bud
later
##eral
##ax
dog
fell
white
sent
##ped
##sy
ele
full
reg
party
##ole
jim
pat
##orge
ship
##artment
game
street
##ks
##ject
grand
##inc
eyes
##band
though
inside
##ient
##eric
##ipp
art
pet
waiting
excuse
touch
##led
shouldn
husband
arr
hands
country
fifty
murder
es
pie
##als
secret
months
##pid
lik
wind
americ
sweet
sister
##hin
drop
almost
means
##att
sus
##ude
cur
##iet
terri
pain
##aps
daddy
conc
women
died
either
fall
sing
stupid
thirty
##00
win
its
along
leg
million
office
##ape
##lin
red
fil
sam
finish
george
dinner
dra
##ush
##teen
city
wear
record
tea
##so
##anger
##ler
maj
##press
##ised
drive
##ters
running
##ator
beat
##aken
behind
bob
mag
living
##side
##ital
betw
line
between
sub
hang
mem
##sel
##ms
##ures
build
seems
sense
president
##oice
unc
feeling
##ides
##ield
clean
lou
ra
sat
##ets
prop
started
lady
nat
##ience
alive
##aughter
chang
##ured
boys
##ular
rich
ann
##umb
figure
bel
order
seven
mus
mid
##med
state
##shit
able
dear
gre
##vice
stud
offic
scared
clear
wer
perfect
ref
ext
girls
prof
himself
class
also
hor
hair
safe
weren
##ike
worth
bitch
dist
##ote
glad
children
test
vis
straight
##dd
exper
sounds
##ited
##cks
write
imp
med
##ract
##ider
ball
##ows
report
trans
small
##ten
##any
train
complet
##ps
dest
lead
buck
bank
dick
land
rad
somewhere
cold
ou
##ric
front
poor
bullshit
##haps
perhaps
er
brought
york
##ards
happens
contr
weeks
outside
sell
##ster
surpr
mist
ow
add
lau
##aw
special
moment
ahead
dire
##ense
##arth
mary
ru
goin
fool
ke
less
psy
king
abs
lose
movie
asking
harry
cool
##erv
psych
daughter
##ys
##osp
##hh
##ics
##itting
favor
bother
cent
catch
taken
##aster
##ama
inform
ent
jer
##ats
near
fel
key
squ
shall
los
nick
lives
coff
##ram
till
promise
hosp
prot
##olut
dark
explain
fast
##ony
mark
throw
accident
nine
##ubl
pop
mer
ty
wal
##dle
possible
cond
imag
fre
##omb
##ility
oper
danger
##co
##ines
tot
##lly
##ief
company
bes
vi
##uce
##iting
fair
human
teach
ca
wall
leaving
paul
picture
##vin
lock
food
mart
past
begin
##ically
hotel
##ior
fly
resp
max
##ount
priv
##gry
control
hospital
tired
rep
thinks
coun
learn
except
dress
mich
##ern
save
miles
mouth
##ced
##ship
##room
top
super
aff
rather
##ale
needs
##airs
calling
joe
piece
##oc
##ze
kiss
looked
offer
worked
quick
dav
##ction
questions
playing
lucky
dou
known
##cent
ought
dan
pur
disapp
##ency
mister
##und
##ative
works
cover
wonderful
buddy
publ
personal
gent
##erg
cost
words
doin
none
pen
##ces
##gan
##vis
pleas
coffee
##fort
##oun
fix
mach
##zz
blow
park
pos
ride
step
general
laugh
flo
carry
ray
rose
##unt
bag
earth
##ark
##uts
sun
jeff
music
pal
vict
meeting
honest
##stem
parents
##bt
jud
apartment
major
##igh
attack
system
##amed
drug
kidding
charlie
destr
protect
tre
##br
consider
cas
treat
vir
##he
##ession
##ove
##oul
##ined
meant
cann
mis
##idence
press
marry
honor
##ized
felt
bas
burn
##ones
##ode
##ists
invest
interested
smart
val
stick
seeing
spend
court
david
##terday
yesterday
tele
eh
fe
##ately
clock
paper
others
date
sid
##fer
conn
command
##selves
besides
boss
##ald
##lish
##vers
sev
giving
cry
takes
##ael
dem
##uation
##bar
ord
fucked
strange
invol
##ific
army
talked
enter
turned
ill
##die
##ants
road
##ma
##bor
ups
cloth
blue
swear
information
ran
##joy
smell
simple
creat
lord
##ift
grow
respect
##ene
##iam
##ball
worse
cops
##ef
reach
##ided
loved
become
absolut
walter
lar
um
stri
chick
worried
paid
certainly
##iot
short
outta
fault
kick
mention
bird
pack
##ming
##go
prog
happening
##ney
##irth
prison
michael
##ls
##lex
changed
bor
bast
ir
lunch
##nes
knock
sol
drunk
strong
##ues
suit
jew
sold
bri
##yer
cannot
clothes
hop
jun
##eth
gold
pract
conv
unless
handle
plane
terrible
feet
##ik
store
slow
american
uncle
caught
dam
gar
tough
chief
hasn
rock
hist
enjoy
early
mama
nor
##aa
##ged
quit
assh
fifteen
eye
deep
##oose
cab
pea
##vious
##inger
boat
given
##ities
ones
##ully
##ances
figured
middle
mistake
bust
sher
##vern
nothin
neg
adv
comput
##ette
public
destroy
##ories
busy
return
building
tur
tick
private
den
norm
##esh
forty
twel
twelve
mot
peter
bath
birth
hid
lying
evening
trip
jimmy
absolutely
jump
wed
##uff
truck
appre
bucks
sand
wit
wel
##ages
cross
watching
base
anim
broke
killing
##gr
##bers
weird
##ury
moving
careful
foot
brain
breat
##me
##cri
choice
clos
acr
radio
upset
cash
ell
ring
##yn
##ently
letter
fut
##ov
##bo
tor
detect
arrest
completely
fed
lay
##bed
anywhere
agent
quiet
respons
##over
##ism
situation
liked
kept
##ives
##itive
form
##irt
arm
longer
kinda
difference
english
cat
card
##oken
james
mike
piss
tv
##ety
##ission
commun
imagine
dev
loc
problems
involved
19
da
low
##cess
##gn
govern
club
appreci
born
ice
##oid
##old
##come
space
##ments
box
third
##oup
##ational
doubt
##ench
carl
afterno
esc
dangerous
history
alex
bout
ris
wood
##tin
##urity
##ili
realize
floor
bott
bomb
fear
main
##oud
island
hurry
interesting
likes
ble
van
fort
##oof
##used
calls
service
team
books
future
afternoon
##gar
doc
sudd
##ume
relax
sudden
sad
proper
dig
nerv
occ
sil
##erve
screw
nervous
camp
finally
instead
green
viol
wake
##oint
##ium
obvious
discuss
entire
dun
rom
sitting
##ping
hall
##urs
neigh
##ilt
johnny
finished
officer
cir
cig
dance
jail
sake
wow
##yle
security
board
visit
fat
gee
##ring
##ray
station
self
killer
message
machine
##uring
allow
eff
lad
nin
##ulous
cla
##orth
steal
ce
jake
ted
eddie
darling
possib
hmm
ver
##uke
circ
ger
opp
tem
table
impress
belong
across
cam
##ots
fred
needed
roll
glass
colle
fish
##ina
##idge
prod
post
missed
staying
pictures
natur
dude
lim
mod
##stairs
stopped
account
picked
decided
totally
bunch
##te
##urch
##lfriend
accept
owe
welcome
age
west
##ering
church
##ounds
girlfriend
college
hom
san
tape
##rey
shop
connect
peace
bought
##ugg
##illy
somethin
window
direct
disappear
cook
fol
##lo
##cut
##imin
goodby
wrote
horse
asshole
##mit
spl
mac
lots
lawyer
evil
witness
fill
hy
forgive
investig
bastard
##nie
##fully
##iter
emp
apolog
hungry
goodbye
cong
eve
south
requ
gotten
##ogra
contin
appreciate
tast
##aven
##atic
##ened
heal
join
missing
##avy
computer
cast
##mas
##ino
sugg
hardly
contact
suck
phil
present
av
est
voice
##night
##etic
##key
william
amaz
holy
calm
address
cigar
equ
hide
##oon
##etch
##onel
partic
prep
gard
named
force
##ills
##view
wearing
cow
sett
soul
##uel
##bi
##ann
weap
##ices
french
usually
enem
moved
cell
dumb
fur
deliver
corre
wild
ange
##pped
christmas
##pin
##ru
##how
lived
driving
awful
papers
louis
program
dying
kar
##to
##ana
prove
price
color
department
forgot
suggest
pard
threat
hero
##aine
quar
russ
##ky
##une
saved
##cially
charge
surprise
field
roy
heaven
##iment
smoke
fail
elect
suspect
##ination
phot
appear
mas
master
##king
##eng
princ
##ica
sail
hadn
marri
imposs
hook
##ham
nose
whose
standing
gas
##gu
suff
putting
idiot
billy
single
bow
##ai
##ester
##uten
ground
crime
track
##ipped
impossible
band
ant
phys
lieuten
defin
##vision
mir
song
listening
farm
government
jul
##ians
##friend
summ
##ico
##ogn
diffic
attention
sens
colonel
lab
##ether
loves
const
mov
appro
reading
gives
draw
##bit
load
joke
percent
recogn
##uthor
obs
detective
lieutenant
movies
push
round
##work
##ature
##ute
wash
##aces
divor
dreams
pleasure
correct
dat
fit
hol
pot
sea
stuck
bro
boyfriend
##attle
film
birthday
cust
##arch
##iday
neither
##cious
paris
extra
cre
rick
yell
##bb
pray
clar
starting
walked
experience
beginning
drugs
sheriff
wedding
neighbor
pardon
##ruct
beer
beach
share
using
##ify
guest
ways
block
terr
surv
spec
earl
surprised
folks
aud
hen
mc
##ified
spir
relation
ridic
records
##vy
##ille
neck
##ules
closed
level
promised
admit
america
type
##hood
notice
comfort
twice
blame
writing
group
fired
##lemen
dollar
code
gh
mitch
##bur
thom
whether
##ston
fright
mission
charles
admir
jerry
vac
##gue
##owers
##uty
##icide
##aged
cred
wondering
normal
during
nuts
rain
guard
partner
smok
brothers
evidence
fighting
depend
judge
civ
gift
tight
##uit
shar
asleep
exp
exam
talkin
broken
##ished
crash
tech
trick
memory
##ograph
difficult
pin
tal
##aked
bye
crap
walking
cute
holding
guns
ridiculous
names
silly
tar
tap
##por
##cy
##boy
##iew
franc
##ager
seemed
marriage
wheel
##iced
plenty
spent
moon
planet
##pecially
especially
martin
orders
camer
aut
rent
##ted
##fuck
polit
seconds
amazing
lam
loose
view
##ron
##zen
##otion
washing
##place
##pens
particular
relationship
bat
cup
port
rub
sle
##ius
inno
tells
exce
##astic
##aud
betty
acting
skin
jean
fellow
position
feed
definite
fbi
lee
pil
river
##la
##bs
tow
##itor
ide
travel
yah
dump
file
ju
pan
##nal
##den
beg
forever
plans
intr
buzz
##fast
##ries
##esty
exist
host
decis
collect
egg
north
tax
##ners
##lor
##ese
mex
butt
hole
weekend
sleeping
breakfast
condition
gentlemen
mal
##rop
often
note
##oop
proud
search
brown
intell
lovely
remind
ori
pig
##ka
##enny
mel
crimin
grace
pulled
double
fant
finger
gri
jan
jam
sar
ther
##iny
stories
worst
##ended
meaning
bridge
clim
##els
grant
keeps
faith
sym
bobby
animal
nur
tear
##par
heavy
within
scream
crack
contract
patient
arri
queen
##ploy
support
tommy
sixty
seriously
victim
bathroom
rout
##que
bear
organ
embar
attract
detail
##ology
nature
dor
mmm
opin
##ez
andy
##iforn
scene
swim
##ancy
californ
terrif
danc
odd
##row
##ung
##bert
##ips
played
desert
seventy
health
summer
angry
##ishing
rece
##ires
gettin
agree
univer
advice
##while
object
nurse
crew
##of
##min
##men
##eg
ital
repr
shock
area
champ
succ
feelings
##ption
concer
california
000
lang
##pap
##read
stole
##ada
##icated
ourselves
feels
civil
bal
games
mass
rules
##rass
##here
iss
##eech
plus
places
##ender
##ints
harm
henry
ber
cree
page
yo
##kes
##irty
arch
spot
bruce
cock
profession
jeffrey
television
techn
washington
embarrass
bod
dirty
match
rand
##iant
keeping
perform
murdered
complete
gentle
##heart
effect
split
apologize
author
coo
du
ly
##aff
##ges
##wood
##isf
##ises
onto
chea
##itten
agre
blind
built
assist
pretend
insane
majesty
medical
keys
hiding
##ength
innocent
gim
##light
willing
leon
##oyd
committ
event
gener
##ences
learned
profess
favorite
credit
definitely
mix
##cer
##gas
##ye
##ution
bell
lic
##rick
herself
##ument
immed
lately
ghost
jour
las
rough
##ral
##enn
##itude
##ander
speech
project
charact
custom
success
immedi
##ging
##ki
##ero
##ena
knowing
##amin
convers
amb
marsh
flight
##acy
prec
shooting
study
dave
luc
tit
tree
##eed
##ford
weather
stan
##urance
cha
scar
holly
craw
showed
teeth
trial
shoes
simp
incred
training
marty
risk
settle
enemy
due
lind
nig
pu
rap
##ss
##field
stock
states
upstairs
##elly
##ettes
senator
following
robert
losing
obviously
ug
##za
##yond
##ano
beyond
weak
##enth
soft
##olf
client
crow
ident
interview
harold
decide
apart
copy
speed
fella
dropped
magic
subject
richard
horri
empty
sant
##let
##wise
necess
brad
scr
emerg
grab
newspap
curious
##ountain
ticket
responsible
devil
admiral
origin
opinion
concerned
##rat
somehow
pock
greatest
warm
eating
locked
claim
introd
pool
path
##iat
waste
whoa
smith
action
heads
hanging
virgin
chicken
possibly
taste
cous
rome
ram
wine
##itz
stone
##oph
##icle
brand
motherfuck
drinking
airport
corner
sweetheart
satisf
##iliar
suddenly
professor
gang
taught
vide
##town
##ration
##oned
##omm
lied
lloyd
sund
letters
##achel
paying
prefer
incl
legs
victor
data
spirit
thomas
30
hat
ol
tie
ur
##iest
##val
chair
swe
mommy
famous
familiar
numbers
magaz
german
ban
gord
ign
##cus
##ker
proof
##ula
seat
themselves
##ortun
scott
runs
turns
susp
purp
commander
opportun
excell
gimme
dry
fle
sight
##line
##arm
##eter
lift
ash
sugar
##ulations
grad
career
desk
##otten
raise
satur
cheap
boo
rat
##aur
thou
##ening
noticed
##antic
tru
scare
switch
laur
common
personally
danie
intellig
ros
##lu
##ville
##ered
##oming
forward
comb
checked
sooner
##velop
afford
request
simply
saturday
duty
gal
jason
kay
mick
nail
size
ven
wound
ang
##ased
held
##ste
suicide
vegas
##usion
bright
cars
nightm
##ization
complain
natural
repres
vol
##head
haw
stat
deg
comin
spoke
science
laid
insurance
prov
attorn
##ibility
passed
director
freak
junior
decision
character
cy
fem
lone
mcc
pants
ry
rum
sour
##da
heat
ham
##alous
##imate
dont
##icious
##ils
lookin
claud
monster
appar
mostly
##wards
annie
large
norman
dunno
further
ugly
horrible
sunday
attorney
bon
tour
##mission
fore
fresh
arg
bug
scient
otherwise
employ
sword
bigger
shows
design
descri
excited
drag
distur
emergency
borrow
eth
hill
hired
rab
weight
arms
helped
adam
starts
##iction
doctors
hunt
eleven
regular
breath
recognize
ideas
10
aust
bond
dom
hors
mountain
rip
##asons
rele
stars
sever
lights
madame
discover
concern
quickly
escape
property
ladies
conversation
##stein
cit
gam
jos
jac
pounds
wil
##istic
brit
helping
access
jealous
arrange
perfectly
busted
broad
vacation
francis
cousin
aunt
eur
fan
gall
lond
mood
row
wise
##mer
##house
##well
##orter
##eds
liar
develop
expens
sport
##ago
accord
driver
goddam
speaking
england
sneak
sales
dogs
rule
bottle
blew
congrat
mexico
lonely
bay
mm
nah
whis
rev
##lyn
friday
plant
scot
scri
mail
matters
planning
watched
beauty
milit
##uction
license
immediately
gordon
london
kr
ken
kitch
lake
luke
nar
ye
##ored
##ites
shr
stom
soci
##ication
whoever
##ilty
guilty
everywhere
joey
deserve
eighteen
##ground
comfortable
terrific
langu
bodies
kitchen
lines
non
sin
til
##ts
##time
##ya
repe
nope
##elle
##using
exe
commission
damned
snow
total
crying
mentioned
pissed
quarter
criminal
##ien
##inary
##ores
##sey
##ches
justice
upon
##earch
cares
trade
energ
remain
johnson
pregn
expected
secretary
leads
market
positive
talent
pocket
11
awhile
cream
corn
east
national
oil
patter
##ued
react
storm
##ades
sees
imm
##othy
answers
hoping
local
gentleman
truly
bum
bite
dise
kir
nic
##nel
##gest
tooth
##asy
##ality
social
##rage
assign
strength
pair
bringing
eighty
expecting
engine
carrying
practice
cele
garden
camera
purpose
citiz
corr
ms
##iers
threw
##inct
##ato
##ids
stew
sue
manager
##akin
buff
written
poison
leaves
elaine
sky
grave
benj
susan
danny
bottom
europe
celebr
18
cards
gay
mat
mut
vill
zero
##ees
##ining
theory
whom
##ida
chop
nowhere
##uses
usual
drove
united
hearing
surr
extre
square
teacher
disappoint
pressure
##board
allowed
weapons
approach
opportunity
script
execut
fund
tall
##nin
##bing
##ising
##asc
meat
##tern
plain
whenever
express
spare
brill
nights
believed
##perate
research
##gging
sometime
milk
indian
pete
loud
center
damage
battle
faster
mall
net
pun
tun
##af
##ived
##gen
##bly
itself
##asion
reasons
chic
##icate
##essed
spock
unh
became
writer
##anged
stayed
shower
tex
jacket
bedroom
files
larry
federal
smoking
dorothy
wire
##ients
##ga
##iner
##asing
heh
##cha
above
depress
##oles
enc
quot
##ache
emotion
hild
serge
appoint
opened
aware
dressed
teleph
sidney
birds
naturally
incredible
energy
jane
ment
mob
map
##oat
##back
##ita
reck
lif
ate
##icy
spring
cole
flat
assume
easier
followed
sexual
refer
balls
burned
weapon
benjamin
20
ba
cart
ears
nut
witch
##con
butter
##itty
surely
older
serve
inspect
##roll
bloody
jerk
county
destroyed
fortune
neighborhood
frightened
mickey
represent
apparently
according
pattern
sergeant
aye
cub
jose
punch
##tor
##tle
thurs
chap
log
carp
blank
tryin
biggest
serv
restaur
indeed
operation
flying
animals
closer
divorce
naw
ot
pure
sna
##sie
##bon
##kins
shirt
separ
##osition
##ending
ours
plays
player
##gged
awake
legal
turning
continue
princess
mitchell
necessary
includ
magazine
ryan
stomach
thursday
tip
wet
##cle
thy
##erm
anal
shame
staff
chem
however
##unce
goodnight
thoughts
flowers
babe
bullet
brains
powerful
defense
century
arrested
investigation
physical
congratulations
bare
bern
cos
jab
kane
led
oce
vall
##rant
##gy
##gers
##itions
alb
##ement
disg
recall
behav
##ipper
pieces
falling
psychiat
##fortun
responsibility
silver
cigarettes
russian
target
hollywood
video
british
language
hildy
jap
jury
lis
nap
rod
ta
##uh
##case
##imp
print
loy
leo
unfortun
blond
##izing
activ
sonny
##under
boring
crowd
bones
hm
lap
mater
pow
tay
##pir
##ha
##iod
dozen
##cker
##ural
letting
unus
throat
flor
funeral
breaking
final
signal
buried
streets
magn
enterpr
earlier
eggs
issue
linda
excellent
disease
chicago
dish
fi
pear
pump
vul
vamp
yep
##uz
##ev
##iation
##itation
##stand
chain
alan
saving
tellin
##aker
among
lemm
##empt
margo
buying
period
strang
picking
simone
virus
illeg
negot
baseball
prepared
mirac
tapes
professional
hated
mort
pink
pills
##zo
##bage
shield
shift
knife
stink
someplace
unl
beth
joint
swell
maid
understood
trap
laws
steve
##ipping
strike
daniel
society
loyal
taylor
unusual
15
fab
jess
junk
pee
pers
rh
##ture
##oci
##mon
##ex
theo
doors
##ceed
manage
guar
unf
waited
tony
process
##aced
charming
signed
riding
nearly
freed
practically
connection
disappeared
williams
mask
terror
depends
pilot
lemme
dust
naked
roof
rachel
wade
##ket
youre
anna
shark
chest
##ulation
trunk
downstairs
coat
huge
associ
disp
recomm
accom
clever
##etti
brings
sending
forgotten
robin
concent
changes
ordered
selling
cabin
woods
sailor
italian
motherfucker
pregnant
joseph
guarant
cath
pill
sally
##oil
##ule
##father
whad
##reen
inj
knight
stol
prim
##ications
##ateful
trad
moves
unif
emper
surf
ended
elev
##olution
typ
##inese
negative
ellie
cowboy
clarence
brilliant
enterprise
emperor
cult
fal
pian
rush
var
##ror
##res
##rate
##gie
##ona
toward
shape
lies
cancer
##ilities
saf
spell
##ipe
finds
kidna
smile
attitude
dealing
baron
opening
confir
instruct
sisters
##rica
steph
laughing
hyp
equip
angel
royal
slept
dancing
military
behavior
japan
uniform
lat
rate
##off
##uv
##eal
##ym
##yl
rever
##lect
##pping
seal
talks
grown
impr
holl
monday
trail
invite
relig
##ledge
ruin
opera
fixed
sevent
brief
bleed
assistant
several
restaurant
12
dign
nons
ox
rare
##oved
##down
thor
##ini
##ators
whore
chinese
##ulate
spread
amy
downtown
parts
carefully
headed
sched
complicated
artist
clearly
expert
hmmm
ocean
fing
fake
kelly
math
tong
##nn
stab
chat
choose
rights
clay
firm
fac
heading
rooms
commit
jackie
pulling
corpor
##ension
member
transfer
newspaper
jacqu
equipment
nonsense
dent
dum
hates
pier
ron
tues
vice
yard
##ux
##ders
##bling
thief
##esar
##rel
cance
likely
cho
thinkin
deb
france
loan
lect
##bel
partners
actor
##athan
showing
ends
wondered
thousands
confused
touched
midnight
entertain
created
progress
garage
##aaaa
romantic
avoid
princip
yellow
survive
fantastic
arrived
committee
horses
telephone
material
tuesday
jon
ren
sie
tail
##ox
##otic
shhh
noise
clark
uns
##eline
coast
##agne
reality
result
jobs
slight
diam
sixteen
planned
terry
##ashed
##ashion
decent
defend
regret
cigarette
sarah
screaming
journal
cents
dirt
fasc
gain
les
pir
sed
tab
tank
wes
wend
##ele
##cl
reed
style
wasting
##urt
##ila
##asty
##umst
amount
##eless
score
grade
monsie
insist
fourteen
##phy
compet
invited
incident
##ological
burning
caesar
covered
anti
divorced
audience
details
agreed
santa
original
repeat
jabez
stolen
seventeen
diamond
monsieur
dare
gate
mile
rail
wolf
whatta
beau
lips
##vert
##cher
##eez
##itted
roger
intern
##gger
drinks
millions
passing
##ologist
banks
kicked
solid
occur
occasion
nightmare
freedom
fried
fancy
fashion
naz
nerve
por
pant
##agh
##nis
##lies
##can
##iber
##yers
##anz
hal
liqu
chances
deck
sean
armed
underw
grateful
finding
friendly
##iac
desire
priest
##swald
frankly
passion
falls
official
ruined
creature
soldier
hidden
belongs
karl
photograph
therap
female
kenned
extrem
texas
bax
cher
ep
fer
gig
lor
oswald
##ses
##vent
##fle
##ware
theater
##eday
##asure
##reau
liz
##ential
prince
someday
##abitch
spoken
mayor
carter
##ouses
betray
impl
permission
mont
assum
terms
barn
humor
##uced
curr
experiment
lesson
affair
oughta
attacked
growing
garbage
ninet
product
route
universe
scratch
kennedy
baxter
bound
cyn
fought
guts
lous
range
wy
##oll
##mont
reward
web
gosh
##rie
alarm
##olic
bureau
coke
##agon
emb
poet
acqu
flesh
understanding
insult
policy
famil
meth
prior
confidence
##nold
brave
steven
staring
patrick
central
squad
counsel
##ocol
honestly
value
smells
circumst
temper
model
avail
##rupt
electric
champagne
mixed
intelligence
francisco
negoti
100
dim
hire
jones
mul
nun
##oot
##mond
##ige
##gl
##verage
dece
##iles
sayin
twist
fucker
##road
term
jesse
edge
bills
influ
learning
wallet
offered
pleased
congress
castle
guests
univers
performance
title
chaunce
pupp
foreign
expensive
appointment
valley
illegal
piano
chauncey
bang
dies
hoo
joy
mack
opt
puss
rig
##oe
##sa
##ris
##ially
##for
##kin
##oms
##reck
##stone
soph
chall
##iling
##ague
male
realized
traff
attempt
frankie
hunting
instit
##ucle
singing
statement
psycho
loser
nicky
trees
tickets
claire
impressed
gardiner
citizen
reckon
safety
fingers
tongue
lousy
families
available
50
fishing
gab
hay
miam
nurs
pad
peel
rack
##ij
##ios
##bles
theat
##seum
knowledge
china
##rap
fro
##ushing
agency
badly
trace
resc
resist
sonof
desp
shoe
exciting
checking
younger
hung
murderer
secrets
winter
distance
bored
knocked
motel
##ovich
screwed
create
tower
victims
attractive
introduce
sweat
emotional
extremely
miami
25
ast
boun
duck
fag
gear
hob
kath
matt
ooo
pour
ul
wid
##ault
##eer
##ca
##wich
##erves
##ara
##utation
sha
shad
forced
stood
stamp
liber
aband
##osc
kills
hud
phill
craig
series
reserv
commer
cheese
steady
facts
paint
destiny
counter
casino
demand
advant
breathe
escap
ninety
glasses
##load
panic
discovered
unhapp
disgust
bart
cake
fra
grew
mum
nasty
ward
woke
##cul
##iving
toby
whack
##rees
doyle
##che
novel
##enture
wanting
##ril
##rib
##rict
shel
veh
section
spook
spoil
cloud
moz
unit
##agn
scary
##thy
stretch
invent
genius
confident
signs
benef
regard
student
medic
popular
demon
deny
climb
including
cad
dil
kim
piz
porn
race
tied
umm
vinc
vada
##oard
##mother
##cil
##vard
toil
toss
##enna
dope
##sters
stage
##ado
##ante
aboard
shelly
chann
anyhow
fruit
drown
museum
##atherine
eliz
kidd
crit
swing
fav
recover
appl
fourth
cutting
edward
##ception
painting
reporter
penny
miser
border
example
autom
##ropri
odds
miracle
bible
bail
mere
na
nucle
os
patch
vers
##de
anne
##isc
reven
repl
beam
##ador
##allow
aside
cham
chew
howard
##aint
season
comr
##uman
agnes
intend
gray
parties
monkey
boom
boston
recently
apple
finan
preach
desperate
educ
metal
miller
##ivid
##ival
reasonable
determ
register
bothering
throwing
reputation
spending
soldiers
impression
filled
karen
russia
holiday
jeanne
authority
cooper
romeo
satisfied
inspector
lisa
jessica
batter
dip
fate
pitch
ves
viet
##zing
##lig
thee
##esa
anx
##arily
meal
##sty
neil
sheld
chin
##ican
alice
albert
wherever
##ability
##uments
qual
helen
minister
flash
babies
tricks
termin
capable
diego
explos
engaged
windows
terribly
cleaning
louise
studio
conduct
affect
bags
considered
ranch
motor
breathing
community
enemies
loaded
political
routine
creep
nigger
source
recommend
nineteen
traffic
sonofabitch
mozart
medicine
60
aven
cert
diz
kat
nation
nix
pist
powers
rib
tag
tits
##rist
##dom
##dia
##bery
##atory
##kee
##ales
##imony
lip
libr
##illed
pred
dew
lob
brook
shoulda
mole
coinc
mustn
thrown
cheer
##ggy
chriss
barry
easily
hurts
lawyers
bullets
murders
starfle
##ensive
admire
memories
changing
purs
cases
misery
convinc
stealing
possibility
empire
construct
ricky
particularly
lydia
ashamed
rabbit
blonde
pearl
guarantee
circumstances
unhappy
starfleet
bun
bert
cats
dea
diss
et
ku
link
lomb
lenny
mic
vo
##ties
thin
##erved
thel
knees
cand
chasing
alth
##istry
goodness
##ols
##abeth
contain
offense
puts
kinds
flatter
serial
##ansas
##icted
harder
walks
points
explan
madam
bury
susie
members
dickie
##nesday
jews
wednesday
sandwich
ellen
failure
sensitive
pathetic
release
jacqueline
elizabeth
14
cav
drew
gale
horr
hanna
lun
lack
tiny
vit
wing
zoo
##oh
##mp
##uate
##rog
##lus
##iar
##ique
##erc
##anie
##ares
##oted
##uther
review
suits
frances
sale
orange
##ucker
trou
union
blast
blah
screen
becoming
##ples
cru
adj
##quir
morph
owns
strugg
prick
standard
interests
infect
confer
confess
trusted
dreaming
starling
##apped
grandfather
foolish
caused
walls
superman
machines
systems
jewel
brian
basement
veron
janet
ghosts
laura
claudia
disturb
josh
accompl
advantage
##ropriate
nuclear
lombard
cure
catherine
ii
jeez
kent
liter
nathan
punk
rag
teen
wreck
##eb
##cra
##gun
##bl
##edy
reh
shake
candy
##rier
pros
exch
conce
##icks
shoulder
crush
bread
focus
thirteen
shots
##azz
handsome
winning
greg
officers
vision
experi
direction
respond
based
convince
football
alexander
produc
philos
constant
sharp
jamie
argument
ethan
narc
shrink
kirk
barely
florida
robinson
false
pussy
although
der
lester
ped
pic
pac
tent
tub
##oom
##pher
##caine
##we
##ww
thumb
##eration
##ases
##reg
doe
##imes
button
chocol
##iece
lets
clin
unbe
cocaine
smo
remembered
launch
skip
hits
grandma
arranged
americans
curse
cleaned
below
refuse
virt
valu
effort
directly
appears
mirror
##bbie
eventually
successful
schedule
frozen
veronica
ach
dime
duke
jet
kurt
lower
wand
wide
##aid
##hip
##gain
##vable
##ygen
init
andrew
relie
bein
beast
habit
myst
myster
outf
##ella
debbie
lois
##ittin
wayne
workin
marvel
image
courage
proced
warn
warri
hurting
ahh
capital
##anced
setting
movement
humili
snake
robbed
fully
sweetie
transport
doug
considering
burns
iron
jewish
assholes
dawn
dunbar
tempor
shopping
angeles
##burg
embarrassing
ambass
village
otis
unfortunately
instructions
oxygen
toilet
miserable
financial
vessel
bone
ded
dud
eric
gut
gather
houses
lit
navy
rif
rope
tas
wick
##nam
##rated
##fred
##book
##kn
##atives
rex
beef
stake
##illa
##oops
neat
sheila
atl
worm
plate
##uls
##ulse
exerc
march
marcus
badge
faces
served
stroke
proceed
recon
charley
warning
surge
bargain
senior
holds
fifth
policeman
graham
possession
passport
individ
engage
budd
trained
loss
counting
parking
trem
basic
stronger
##estern
juice
swimming
healthy
objection
ignor
degrees
describe
separate
fascin
wendy
university
bree
ned
pound
pity
rot
tu
tend
ut
##path
##bows
##ktor
##oma
inch
beck
hack
golf
stones
##chan
##ader
##ops
##pper
wore
fran
##ilar
sacri
lover
loving
coulda
##ifer
guards
conven
clown
league
##pert
cruel
minor
trave
minds
tests
viktor
parker
misunder
package
violence
witnesses
prepare
suffering
bowling
politics
suspicious
tunnel
carpent
psychiatrist
elevator
revenge
thelma
explanation
chocolate
smooth
ambassador
cob
cable
cia
fart
horn
jill
kin
kil
ni
oak
vote
zone
##mber
##rake
##iable
##worth
whist
##aring
##ota
##omes
heck
heather
replace
hamm
##lder
ford
##iring
chase
sav
bride
carried
cris
assass
##cient
stranger
paran
slip
div
##plex
attend
fox
chris
depos
sexy
patients
ships
kevin
basically
ordinary
reached
elliot
location
occup
delivery
committed
journey
customers
services
wyatt
challen
conference
sacrif
13
21
bour
cere
cott
dall
dough
fuel
gitt
hes
hills
lyn
pit
sore
wat
##rison
##bled
##onse
toy
##isher
##omp
##vey
mechan
##stit
stairs
##oooo
alco
sac
##osing
truman
cliff
worker
africa
marks
intent
scan
scen
gods
gross
flag
##epend
##quis
johnnie
barbar
senate
giant
stands
darlin
higher
promotion
lawson
compliment
instinct
goddamnit
grandmother
leader
leading
bothered
personality
pleasant
palm
basket
closing
entirely
tears
provide
revolution
japanese
bleeding
influence
theatre
escaped
jewelry
valuable
mystery
gittes
average
cage
han
hood
hitting
ira
mck
mig
mason
roth
soup
tan
wig
##rit
##rance
##li
##inting
##etta
whats
began
shakes
forces
stiff
steak
notes
noble
##aming
##rian
##esth
dean
deeds
alter
alien
plastic
##ulf
agents
clo
env
drum
blown
intention
##agger
underground
##bley
helps
##play
lotta
stops
assure
supper
##prints
charges
warrant
##onscious
surg
highly
events
shotgun
independ
instance
deputy
goddamned
article
satan
testify
palace
treating
##ification
slowly
jumped
neighb
freddie
failed
newspapers
virginia
claude
assignment
railroad
ult
avenue
hannah
unbelie
individual
dallas
alcoh
17
40
bump
dating
fee
gest
gary
kansas
mant
makin
##moon
##gle
##xx
##wray
thick
##esis
##rell
##reak
haul
shore
shown
forest
##verly
##odes
sheets
chip
suz
manner
exit
agg
bless
crook
supplies
mighty
headache
struct
diane
prevent
dealer
hundreds
capt
useful
barnes
decl
##ugs
confession
##enced
delay
honeymoon
laund
marylin
maxine
treated
sandy
fortun
teddy
estate
julie
labor
lampert
collection
sympath
austin
surrender
network
snap
tradition
dignan
sieu
method
mulwray
rescue
commercial
convinced
adjust
exchange
outfit
marvelous
45
aim
bars
cave
hust
jenn
nort
puff
rank
sink
sire
##mo
ancient
stor
lick
##eeze
##outs
chart
chuck
##ician
##anda
##essa
device
altern
woulda
sem
spin
clue
happiness
asks
wave
remark
swallow
actress
supply
trapped
struck
boots
glenn
trib
pays
salv
psychic
protection
negro
turkey
mikey
geez
impressive
homicide
holes
taxi
precise
lucy
intelligent
degree
reaction
mental
lifet
chemical
therapy
hudson
coincidence
cotton
jennifer
22
24
aid
bol
bald
dy
duff
ease
jenny
mam
mate
nest
rud
rac
wad
wings
western
##ois
##rand
##bits
##erk
##otch
thats
beverly
steel
##adem
shell
herr
seek
alvy
sew
##umn
##eman
marge
rocks
joking
jokes
musta
poem
monitor
flies
fletch
parad
planes
prem
sounded
prize
checks
billion
indust
answered
patri
distract
testimony
tyler
teaching
begins
costs
protecting
strict
golden
computers
former
governor
discussion
estab
suffer
bowl
symb
champion
crawford
loyalty
webster
shadow
pizza
channel
pistol
horror
paranoid
bi
bul
cri
core
dee
dull
fri
fever
gus
il
jen
lula
nik
pent
ruth
tam
yards
##uary
##vest
##bid
##oura
anth
##aries
##itlin
##omfort
inn
reb
##idate
##illing
soap
ability
outa
wanta
sucks
debt
##osa
##osite
exists
complex
##ears
span
everyday
trash
lex
pean
mars
scra
adult
homework
academ
moral
owner
interf
boats
warned
harvard
trigger
editor
breaks
skull
worrying
admin
robbery
sentence
films
satell
announ
profit
reports
radiation
jersey
beside
caitlin
privile
dana
enjoyed
crossed
torture
freddy
limit
homer
delivered
colored
appearance
juliet
washed
species
received
embarrassed
wounded
salesman
scotch
remains
underwear
disgusting
vehicle
confidential
vincent
chamber
rifle
unbelievable
200
aug
cu
dw
hou
kit
malk
pages
rude
vin
vick
##pa
##nat
##ec
##lv
##gent
##dra
##yard
weal
dool
##ckey
forth
chee
##opard
##icing
##race
##igan
sector
##osen
argue
compr
background
spr
spect
tran
##bels
unp
##thia
becomes
askin
grady
grass
believes
##ached
waitress
flower
actual
##ordin
##quar
moron
mornin
internal
schem
##ggin
tries
presence
eaten
figures
salad
burgl
touching
raised
belt
students
dickson
darkness
treasure
casual
investment
bastards
federation
document
properly
silence
connected
cells
territ
specific
italy
berlin
cockta
fleet
statue
designed
ripley
analy
vulcan
strangers
religious
cancel
beaumont
cynthia
##force
brooklyn
construction
philosoph
carpenter
iraq
neighbors
malkovich
kate
lt
lung
om
oz
pony
raz
tut
tone
tig
takin
yup
##ua
##uits
##hib
##gs
##form
##walk
##jack
item
##itar
height
dod
##str
##sem
##sequ
##ura
##hern
chosen
##ryn
##icles
managed
gum
spar
cared
##ously
enorm
##ortion
blade
feelin
firing
flow
boot
diet
wars
warren
glor
harbor
tripp
precious
compan
##anca
related
##otted
signature
delight
instant
salt
fellas
patience
singer
district
mistakes
locker
response
##unders
steps
treatment
democ
creatures
strip
packed
dammit
settled
threatened
photo
dumped
granted
effects
stanley
angle
volunt
surround
executive
surface
##uva
reverend
pirate
occurred
counselor
library
lifetime
bid
cant
fry
hank
lu
luther
rape
tact
tatt
yess
##oves
##low
##col
##hold
##xual
##esp
anger
##omic
##ays
##uries
chill
hers
alph
alfred
saint
plat
##oses
##osal
arth
willie
##augh
didnt
spy
##aging
helluva
poll
flu
asses
resign
slave
slaughter
appeal
appropriate
##roit
breast
edie
highway
evan
grail
oblig
column
detroit
incre
messed
retire
concert
##lines
uncomfort
mercy
affairs
kissing
teleg
ordell
solution
suitcase
hoped
june
adventure
closet
196
campa
modern
sucker
coward
threatening
julia
existence
germans
nightmares
bugs
sports
vampire
fabulous
loretta
widow
abandoned
lunatic
##known
uncomfortable
16
35
bog
hump
ian
ja
nam
pas
poo
rise
rings
sack
von
vince
wis
##oes
##eus
##egr
##zer
##cing
##cile
##ked
##onn
beating
##iments
sov
sup
atm
##rael
sab
saunders
orch
arnold
unknown
coordin
joined
elvis
bush
parole
polite
glory
foley
invis
pale
april
skipper
fighter
hearts
dreamed
brace
deliber
freeze
freezing
collar
buildings
raw
media
ouch
lessons
offering
valent
cryst
prisoner
convent
returned
continued
quarters
##guard
farmer
pushed
prayer
lamb
technology
hawk
scientists
mountains
disappointed
depressed
unlike
concentrate
stephen
principal
comrade
preacher
anxious
molec
warrior
buddies
barbara
establish
doolittle
campaign
500
bachel
cuz
dut
dill
dyn
fence
greet
hatch
hitch
kram
mult
nu
ny
nan
oct
oath
ripped
site
##pson
##rase
##cr
##cast
##vo
##enger
bee
##leans
shaw
##imum
knee
##irs
nell
alley
prose
prints
orleans
timing
##abl
spit
concept
##apt
clients
units
mud
killers
cocks
scale
belief
remove
coupl
swore
stopping
assault
##cience
stress
schw
charged
function
sits
christian
geor
factory
retired
fallen
legit
legend
filthy
subs
offices
profile
lands
walt
council
kissed
advance
communist
opposite
##uggie
tastes
potential
creasy
thompson
fantasy
technical
pretending
identify
introduced
ignore
expenses
whisper
whiskey
bernstein
powder
vampires
##standing
shields
culture
corporate
liquor
current
gabri
racket
reservation
benefit
critic
dewey
mysterious
exercise
crisis
storage
cripp
kramer
ace
auggie
cem
dna
furn
fog
gorge
hint
mau
rang
vig
wip
yu
yuh
##mar
##mur
##uine
##uated
##wright
##onment
tod
##ora
##ari
##ashing
inse
weir
hallow
stream
##adel
##irm
neut
therefore
chim
pride
ath
veget
##ookie
##ucky
##osph
##ables
consequ
quote
coach
scam
##ishop
imper
friendship
listened
handed
phony
dism
headquar
recru
givin
genuine
grav
awfully
earn
synd
conscience
coron
patr
ess
paine
worthless
##aws
##hhh
entit
squeeze
imagination
exception
laughs
victory
casabl
meantime
entering
solve
convention
advise
roman
extraord
blocks
mcmur
agreement
leonard
raped
weakness
scientist
choices
kiddin
merely
version
education
temporary
task
envir
august
arthur
invisible
headquarters
casablanca
mcmurphy
23
gill
ginger
hut
jur
jus
jazz
moss
mosc
nerves
ross
wra
##po
##lock
##car
##bird
##win
##era
##erick
##llo
wha
##arn
##isy
##itors
ing
inject
##aya
reception
belly
wears
isol
shu
shout
shaking
lily
##usted
assem
chose
##icient
##ello
##ppy
frame
##ilton
manners
##osis
werew
##beat
quality
bluff
##action
afterwards
waitin
poker
##izes
perman
permit
acted
secure
disaster
tracks
owned
moments
tons
booth
contest
controll
##ggie
preys
jackson
useless
decor
genesis
wishes
shuttle
deton
discip
snoop
unconscious
classes
mistaken
pops
conditions
frequ
operations
paulie
superior
marrying
chicks
packing
enjoying
dennis
trucks
communications
produce
limits
accounts
homes
drawing
reminds
organization
attracted
random
generous
disturbed
josie
arrangements
rowan
scotty
latest
photographs
cherry
poetry
institution
favour
vietnam
sheldrake
nixon
##lusive
##craft
fascinating
structure
anthony
academy
comprom
bachelor
dynam
gorgeous
entitled
extraordinary
00
aids
bend
batt
ditch
fond
gree
kh
lon
mand
nom
nav
nancy
pup
pushing
rotten
tune
tips
una
##uous
##ras
##ront
##zel
##lon
##gment
##vant
##bie
##wr
##ja
anesth
##otions
##itect
##omy
hem
whatcha
hah
goose
##aled
##alie
stall
##urd
butch
neur
##essler
saav
plot
exha
##enda
spider
spark
troops
lebows
peggy
intim
intended
gram
grun
role
joan
crank
crane
adop
faced
handling
handled
interrupt
schm
##acity
teresa
driven
##ibly
colon
conscious
pulls
straw
memor
studying
reported
transmission
erin
ruiz
##ysis
fairy
laughed
jungle
practical
jumping
escort
maintain
vanessa
violent
selfish
##ographer
suggestion
mmmm
receip
architect
venice
complaining
gallagh
developed
catholic
confirmed
diamonds
epis
twisted
nurses
liberty
shelter
determined
achie
kurtz
challenge
sacred
spanish
enormous
prosecut
environment
moscow
preysing
saavik
lebowski
gallagher
cind
eg
hose
nas
op
rug
si
sinc
sides
tat
vic
##oan
##away
##com
##gues
##don
##ko
##aton
##ania
##esy
anch
##arter
##otes
##ombley
##asant
inner
reject
weed
##leone
israel
shy
fork
stunt
##ading
myth
##oos
##urice
socks
##rix
##eau
sum
anytime
alert
manh
plug
plates
##uled
seattle
comment
spray
sphere
twombley
lew
fucks
dram
unique
blows
marquis
bund
scout
removed
thrust
sweep
smarter
runnin
traged
morgue
slipped
charm
cheat
businessman
deals
invitation
restra
forgetting
simon
similar
earned
explor
conspir
corleone
instr
##ivers
salary
##iety
sammy
owes
##artha
judy
irish
##cription
daily
digging
tempt
accepted
potato
yelling
audition
spirits
criminals
sympt
civilization
balt
cooperate
ambul
victoria
urgent
suspic
krist
celebrate
expression
persu
kidnapped
pierce
international
chrissake
clinic
procedure
surgery
aggress
telegram
cemet
halloween
ay
dug
git
gag
ko
kring
option
pud
pike
pimp
pige
rust
ske
viv
wally
ware
##mate
##pear
##aves
##lane
##hi
##ias
##iven
##iator
##ds
##ba
##born
##ken
##kind
youth
##anch
tore
toast
##ingo
whales
##othing
##oman
begging
havin
##idal
goof
forbid
##aded
##hers
suite
sulu
##unction
defe
uses
##oln
##olved
##itts
clerk
envel
writ
##ishment
helm
##aches
emily
emotions
##assy
##pton
uhh
active
stays
hears
interrog
boone
slut
apply
##dya
##phia
breed
personnel
finest
ending
opens
counts
relative
fights
murray
budget
grey
horiz
impulse
merry
dressing
purple
parked
sticks
connell
hopeless
feds
evelyn
philadel
hooker
songs
custody
clarice
##burger
decisions
taxes
malcol
pigs
customer
crawling
incredibly
combination
narrow
citizens
unfortunate
unfair
terrorists
sealed
nazi
phillip
dipl
lobby
troubles
wicked
shakespear
precisely
##otchka
peanut
territory
tiger
soviet
deliberately
coupla
envelope
philadelphia
malcolm
shakespeare
dal
kend
linc
length
mun
pipe
rans
sig
ts
tis
uta
wives
yan
##mail
##put
##sion
##zlo
##lict
##gic
##iture
ink
inher
meas
goal
shitty
##iro
##ament
##eeee
soda
abuse
suc
pra
prime
debor
frida
maniac
seats
##ifying
guin
guide
exped
exagger
brut
##aph
lean
shoulders
drank
unre
##berg
##berry
integr
scully
wrest
groc
joanna
waves
##acht
waiter
pole
couch
swed
hiya
##shot
slim
diary
warp
sons
cheating
shove
hitler
##aze
bitter
explo
syn
messages
burke
##attan
curios
##lina
drawn
draft
beats
annivers
worthy
bothers
catching
entrance
merrick
republ
suns
basis
seventh
garrison
norma
normally
motive
closest
torn
laying
locate
clubs
ninotchka
observ
##burgh
martini
skinny
hostile
hostages
grip
issues
flew
booze
daniels
combat
status
mccoy
concerns
assigned
blanket
activity
dishes
confirm
religion
##belik
results
##elein
fashioned
assuming
options
bunny
kubelik
voices
wandering
surgeon
cobb
waters
strictly
symbol
cocktail
tragedy
cemetery
kringelein
lincoln
utah
deborah
anniversary
bishop
cattle
dame
dway
dict
econ
egy
hunch
jed
jere
kong
kling
kings
kenny
pose
pals
rico
tin
tale
voy
wyn
wander
##pers
##power
##rome
##rup
##do
##foot
##bal
##wire
##inity
##esc
##aron
##itated
##rels
heav
rey
rein
reve
weigh
shith
sheep
##alf
stalk
outl
outer
##rial
##ryl
##eller
##pps
deer
alt
##artz
##ained
##ulated
sequ
select
##endid
##ums
maya
clothing
fuckers
engin
workers
needn
maranz
gran
crus
crimes
##daya
playin
phones
traum
##shire
resent
paras
worlds
recent
meetings
division
cheated
reads
accused
payment
##what
eats
highest
relatives
obst
franklin
passage
bits
airline
corp
papa
grandpa
dropping
winner
propose
proposition
beloved
tested
visiting
landing
radar
absurd
##onym
operate
vienna
pengu
##visor
raymond
busting
doubts
discussed
romance
peaceful
threaten
sailing
bandit
constit
sharks
cameras
ruby
ideal
hostage
receive
harmless
creek
generally
laser
santos
##leton
brandon
graduate
rumor
scientific
goddammit
patterns
cuba
chapter
bernie
stinks
lecter
slightly
friedman
nazis
betrayed
invented
morpheus
pacific
traveling
deposit
suzie
laundry
administ
crystal
furniture
##osphere
curiosity
dwayne
egypt
engines
bent
cried
dates
epps
fuss
fits
ferg
gy
gor
jay
jelly
lame
mong
martha
nich
nuth
ripper
vom
yacht
##pes
##rad
##rating
##zed
##lan
##hand
##dale
##fl
toe
tool
toler
whit
##arian
##itate
##itable
##aser
rear
haunt
##store
##imore
##imeter
stir
lion
liver
yourselves
sof
sock
##inky
upper
##ici
manif
lovers
plague
sel
seb
guid
arc
carol
lev
margar
adele
greater
##ogs
morgan
string
charity
glob
##pense
cleared
ahhh
tennis
edgar
presume
thirsty
halfway
possess
steam
blackmail
incon
eleph
election
##ieth
samuel
subst
raising
##umbo
bela
studied
hairy
distress
smaller
fools
fooled
explained
merle
operator
purse
penn
floating
treves
severe
kicking
brick
juno
motion
torped
limo
cooking
folk
requires
sucked
suspected
obsessed
surviv
mexican
arrive
randy
laszlo
##anoff
dragon
mallory
logical
carpet
magnific
trailer
temperature
barton
spoiled
certific
deaf
struggle
producer
engagement
tremend
independent
alcohol
paradise
interfere
satellite
scheme
yessir
valentine
gabriel
werewolf
baltimore
ambulance
succeed
maranzano
bam
biz
cord
cunt
dub
dyle
fid
fiction
faint
fisher
ganz
kyle
lance
lane
lugg
luthor
mi
nit
pip
pile
rm
rop
rode
rita
vaugh
wagon
##mouth
##pting
##now
##ridge
##eu
##gage
##va
##bow
##aney
tox
whoo
##order
##orters
##ete
##otta
dolor
##leaf
##stick
shine
##kel
donald
knox
stacy
livin
canada
neo
neph
sheet
##ested
worries
##iled
orph
locks
plumb
ohio
guilt
comic
##aste
##astian
meanwhile
spill
##ummy
bren
brady
mayo
tram
##osexual
callin
enquir
enforce
mock
molly
unex
mulder
bub
grat
##ueger
puttin
thrill
swamp
perp
monsters
missiles
flip
disks
lawn
interfer
##ansky
parr
insp
##acon
polish
walker
previous
surve
meters
highness
skirt
sketch
questioning
colors
##encer
madman
sorta
ridd
forgiven
retard
retrie
sentiment
##oleon
concl
annoy
muscle
officially
impact
landl
##cover
costume
roseb
judgment
protected
entered
creative
prisoners
jewels
damaged
turk
crossing
197
##oids
boxes
violet
violation
production
cookie
electron
photos
##guing
recognized
wheels
rubber
searching
intellect
shocked
creeps
nigga
necessarily
magazines
rumors
gamble
wilson
krueger
engineering
matth
matrix
bait
napoleon
ronnie
porters
montana
##nolds
negotiate
puppet
rehears
prospect
intentions
captured
houston
##natural
atmosphere
schwartz
patrol
reynolds
sebastian
dolores
80
bike
cly
cities
eag
fats
ich
jeep
mim
mol
mush
mookie
od
ooh
pitts
rage
riot
tack
vent
wins
wrap
##tw
##mony
##uard
##lot
##lers
##hill
##gate
##diction
##bag
##wy
thea
##anor
tops
whip
##orable
##aroo
reggie
dock
##aling
##imm
donnie
sting
##cho
wasted
noon
##ira
cany
##illance
butcher
chan
chess
howdy
##rack
orbit
ohhh
##ulting
seym
exter
exhib
compens
backs
backwards
brush
amber
tramp
leland
lemon
envy
que
##agers
leak
crown
smack
smiling
boyd
flood
##cia
handy
##attered
strate
momma
##pected
slam
apples
sixth
gloves
aha
compound
capacity
eduard
ape
questioned
passes
behalf
milo
madison
humans
##ials
consum
starving
speaks
answering
sorts
bodyguard
collea
filed
samples
maggie
refused
reflect
causing
reporters
davis
##zzle
destruction
treaty
involve
publicity
##grim
risks
screwing
violin
possibilities
circus
circuit
westley
homosexual
splendid
apology
require
sucking
williamson
wilder
angels
hooked
suffered
physics
physically
survived
gifts
autograph
feeding
melanie
fantas
balance
matches
effective
scares
claims
include
excellency
lifted
nailed
hawai
borrowed
bonds
broadcast
commissioner
engineer
stewart
steward
associate
injured
reverse
entertainment
assumed
embassy
insulted
naive
##keeper
convenient
ceremony
basketball
gesture
philosophy
democr
surrounded
sabot
juris
manhattan
conspiracy
symptoms
jedi
wynant
fergus
unexpected
matthew
seymour
75
ari
dur
fame
ivy
jody
kip
lime
mouse
nag
penc
ral
rats
ss
sic
sins
##aire
##nic
##uing
##lante
##cott
##hole
##got
##bes
##kman
##xim
thread
whale
anonym
ingen
reass
measure
hav
##cktor
shed
shap
##keys
lila
##chester
##anta
withdra
asian
worship
coma
comedy
spagh
##umber
brun
carbon
lecktor
queer
muff
marie
helpful
##angle
probation
##izer
monica
acid
acce
actors
phrase
##anks
display
guessed
mothers
serving
laz
parent
inspir
beings
sloan
contrib
commod
brew
walkin
compass
deserved
chron
drives
##aughters
excit
exclusive
christine
relations
award
colony
murphy
##encing
india
##cca
strain
defensive
drops
curs
painted
##lined
proposed
natalie
musical
transl
owen
coffin
merc
operating
fairly
wallace
repair
covers
sunny
attacks
honored
smelled
strikes
borg
practicing
histor
deeper
deeply
##box
tort
detectives
formal
documents
silent
investigating
investigator
heroin
praying
##ography
francs
wheeler
auto
batman
pilgrim
fingerprints
climbing
contracts
customs
stanwy
chairman
venkman
jacob
arrangement
yeh
corru
extreme
analysis
laplante
knights
primitive
typical
holland
transferred
dentist
liquid
registered
explosion
flattered
disturbance
literally
narciss
dudley
sacrifice
mckenna
mantan
announce
privilege
wisdom
coordinates
multip
lewis
dramatic
vivian
horizon
diplom
expedition
magnificent
nephew
perpet
surveillance
clyde
jurisdiction
spaghetti
ax
ara
cass
ding
dow
dive
daughters
erica
fu
foul
gin
gym
hip
hans
kl
kal
len
lest
maker
pod
pope
porter
rit
rio
sut
sust
sout
sittin
tire
vod
vouch
woo
wounds
##pot
##point
##aver
##uf
##rd
##rett
##rors
##zil
##list
##lah
##coming
##iere
##iance
##far
##bler
##ít
##ís
##wald
##erie
towards
tools
inquir
hald
shh
shack
shave
##aly
##char
##chair
nost
##tery
chet
##icip
worn
frust
alike
##usions
##arte
safer
plants
selina
gull
##ola
##abelle
conqu
bron
carr
leather
pecul
quad
unst
bloom
blaming
scoop
##the
undress
daylight
undercover
writes
joel
waits
##izz
smugg
minnes
##atched
##iley
flame
acts
actions
understands
players
stayin
##eyer
nicely
##ocks
parlor
slice
slap
content
##rove
glen
compared
desper
desmond
schools
sleepy
resting
promises
ski
infant
##ivity
stepped
delicious
sends
region
artagn
arrog
bobo
subway
raoul
annette
straighten
addison
kingdom
centuries
nickel
marked
##zech
penis
tread
demons
illusion
creator
kicks
knocking
returns
communication
198
carlos
islands
##rington
hyster
suggested
russians
obsession
frightening
expand
taransky
july
jammed
marshal
chaos
crawl
description
gambling
toothp
chopped
cosm
mortal
josephine
cathy
cowboys
ronald
choir
lecture
slightest
stevens
sophie
institute
batteries
ribbon
atlantic
##ulsive
ignorant
tube
assassin
##osaurs
razor
bracelet
cocksucker
consequences
gravity
syndrome
##birds
episode
aggressive
pudding
warehouse
ransom
nuthin
vomit
tremendous
enforcement
canyon
stanwyk
vodka
peculiar
minnesota
artagnan
400
ack
bapt
cater
caut
czech
dix
daw
dante
fettes
fulf
ike
jord
jaw
kor
lamp
mast
pg
posed
puke
sis
sank
vib
vern
wack
wired
wires
wipe
yon
##oons
##mark
##pol
##not
##uu
##uum
##elf
##fly
##bell
##bac
##äng
##anes
##llie
##armed
inna
##uted
heel
reun
shred
##see
##aline
##alog
forms
stations
##ighty
##aman
##antine
soil
outs
##opath
uptown
##icop
##rah
##estic
seein
alab
sax
sauce
##ainted
placed
guild
expense
##olve
willow
spons
spotted
spencer
##umes
amate
leopard
happily
oklah
quaid
mug
marvin
scumb
hull
underne
helicop
gru
putter
oldest
swan
sworn
swana
mah
maf
maurice
hockey
ministry
perm
fax
phoned
stubb
##mann
schol
bold
hardware
##nerable
harris
capit
drivin
gib
childhood
countries
skill
sets
genetic
differently
airpl
##encies
hunter
##negan
dinosaurs
bene
fireman
almighty
snakes
##ippi
arrow
dragged
raid
classic
bitches
straightened
medication
error
addition
psychotic
psychological
informed
squid
flynn
maxie
fixing
blowing
trevor
feather
##ificant
illness
chickens
iris
rocky
193
carla
bombs
silk
discussing
halluc
temple
girlfriends
directions
contacted
souls
furtw
programmed
heavens
tracking
broom
specim
exposed
examined
slee
berke
immediate
grabbed
scottie
nicer
nicole
buffy
mutual
punished
stephanie
latin
improve
thorwald
corporation
debate
tables
electrical
resistance
kathryn
drowned
patchett
battery
chrissakes
sandwiches
constantly
utter
whistle
##stitute
altered
industry
pentagon
supre
orchest
wiped
neutral
dynamite
exhausted
sincere
anchor
kristen
kendall
sunset
voyage
shithead
survivors
rosebud
eagle
pittsburgh
ralph
excitement
ritual
vernon
##ängler
oklahoma
scumbag
underneath
furtwängler
bian
bunk
bio
bai
dre
dyl
etern
fans
gino
hart
hong
kra
kel
lid
linger
mount
niece
ranger
rational
sane
tenth
vicious
ze
zack
##oir
##meyer
##pack
##uana
##rus
##cles
##corn
##gir
##face
##function
##bone
##ji
##eries
##inal
##atically
##onia
whores
##oting
##ito
##omet
##reh
inh
##vember
hector
bean
beans
bears
weep
habits
##state
##stock
lilly
november
##uster
##amus
##illac
##urb
##urate
sull
##icans
##icates
##elli
##andal
##gel
##istics
##ulty
seed
ark
##abet
backup
letty
spying
##umph
branch
mayfield
carn
clues
happier
needle
overr
overnight
unable
intense
coin
coco
##agen
scram
##thin
fires
remote
##uded
##udge
adorable
swann
smash
##onda
##quet
craft
tomb
##pret
owners
strand
schul
prett
proves
slide
charl
meets
diagn
chef
##phis
watches
harass
tribe
triumph
prey
compare
capture
##ancing
metaph
presents
eastern
eatin
breakdown
darryl
reliable
possessed
##ugos
conflict
indians
brazil
starship
collins
sniff
snuff
burst
burger
calvin
fellows
peters
winds
curtain
memphis
cleaner
proposal
greedy
haircut
medal
leaders
bucket
buckaroo
contrary
fooling
keaton
psychology
entry
popcorn
merch
imagined
humanity
teachers
causes
purch
covering
published
penet
connie
absolute
advanced
##ova
quietly
pissing
195
cecile
opposed
rolling
##teenth
cooked
heroes
approve
drawer
levels
smoked
shares
expose
crashed
portra
##aude
melt
dancer
niggers
##itzer
satisfaction
sweater
requested
sources
employee
austrian
released
immort
kirsty
poisoned
disappointment
depressing
referring
separated
chemistry
album
psychiatric
printed
powell
fiend
savings
lawsuit
whadda
whaddya
primary
types
dignity
seduce
competition
priority
##ijuana
stamps
whacked
regarding
demonst
cadillac
sheldon
terminal
candidate
morphine
infected
crushed
hammer
rothstein
ultimate
remarkable
rudy
wealth
dodge
tattoo
breasts
rangers
dismiss
achieve
cindy
koessler
penguin
channing
hawaii
withdraw
jordan
reunion
alabama
dylan
28
31
aaa
bass
bisc
bingo
cough
dread
ere
eug
foss
gau
hind
iv
lin
lys
lama
lined
ole
pend
pond
rice
rounds
session
tide
tib
vag
vault
waking
##oly
##mith
##nick
##uctor
##eous
##life
##cie
##har
##fish
##burn
##kward
thie
##ourage
##atown
##atics
theories
##onna
tobac
##orse
##eness
ank
##oty
##otics
inches
reilly
dol
##idor
goat
shuff
##ched
myers
##urning
sod
abd
allerg
aspir
##opp
##icorn
##unning
alas
maneu
goods
##olves
twins
offended
amusing
click
ens
needing
drill
##elope
killin
intact
cocon
huey
underest
##ewell
grounds
root
wax
poly
pointing
kindness
crop
crunch
cramp
smashed
hollow
mini
minimum
flirt
remembering
disgu
##shine
strings
insight
proved
boil
slack
contra
attached
harsh
##iana
dealers
deserves
cape
tense
farewell
drift
shovel
picks
copies
skills
eighth
beds
awkward
##aza
bites
indul
bravo
corps
bench
deposition
freeway
messy
robber
hush
calcul
artie
curt
beaten
submit
annabelle
safely
distinct
visual
imply
ernie
sells
keith
##hhhh
hotels
privacy
treas
sticking
bosses
larger
birdie
irre
convict
rocket
denied
##cript
ringing
woody
romul
visitors
fatal
frederick
limited
cookies
equal
##ruder
programs
suggesting
fields
mirrors
specif
judgement
tricked
wheelchair
lamar
begun
malfunction
grief
bearing
organic
danced
civilian
authorities
assistance
spiritual
banana
boost
laurie
hamburger
argon
hillyer
austral
domin
corresp
encoun
encoura
reckless
servant
disgrace
activities
chains
accomp
hollis
briefcase
thorough
facing
facility
dummy
porch
passionate
nuns
faggot
favors
automatic
lipstick
accomplish
initi
andrews
relieved
breeze
beckett
fortunate
cheek
spectac
lungs
volunte
##onnect
molecular
insect
chimera
compromise
navig
brutal
constitution
inconven
luggage
anonymous
southern
mafia
berkeley
schulz
tobacco
correspond
bou
bin
codes
dart
ein
eld
ego
eager
gast
gek
gaz
hence
iren
keen
lux
nash
naught
roo
tang
tina
vague
venture
yer
##mates
##uk
##zona
##cour
##grove
##dan
##ded
##erous
##inations
##onies
toes
##ington
##orate
##esome
##aration
##iser
##etically
##oto
indy
heels
becker
meek
##iding
goss
##cken
donna
stair
stens
stores
##verted
##amas
##ooo
allen
outrage
##ria
##riger
gotham
chips
sul
prote
##icidal
##essions
welles
alib
manip
manchester
loom
guitar
##ober
##akers
spank
bru
offers
ambr
clip
overl
overwh
overhe
quant
quitting
##employ
unemploy
cozy
##issions
scent
scum
##thorn
##ffe
hugh
heller
gren
grows
roast
helpless
##nings
remar
elena
thrilled
probe
cruc
coup
advert
swine
fla
theirs
remembers
travis
tracy
tragic
minded
mora
lazy
resour
slick
readings
accent
accurate
triple
trips
cuts
mete
pointed
excuses
standards
decides
breaker
darn
evolution
towns
gracious
simpl
passenger
confusing
columb
behave
closely
blacks
diner
dining
benny
depart
follows
##okes
ridge
riddle
returning
define
feller
element
regan
##ippin
##ippers
touches
cured
winston
legally
filth
drapes
reform
refriger
visa
ballet
balloon
transmit
landed
absence
catches
merger
superher
affirm
float
cannon
feature
respectable
##balls
solar
hopes
##boat
194
vanished
belonged
modest
sanct
connections
investigate
contacts
equipped
##etched
suspects
photographer
sufficient
anticip
farmers
label
prayers
terrance
audrey
frighten
smokes
examine
autop
rented
towler
buzzing
queens
cockro
technically
titan
identified
interviews
pockets
oliver
graduated
represents
hamp
sneaking
planted
celebration
depression
##backs
bailey
cubans
fiance
rhy
dispatch
concentration
various
##aaaaaaaa
tanks
panties
therapist
puppy
hobby
abandon
comrades
qualified
certified
bertrand
kentucky
experienced
thumbs
efforts
divine
scenar
instincts
alternative
vinci
legitimate
cripple
coroner
receipt
interrogation
margaret
bizar
vaughan
orphan
conclusion
arizona
haldeman
helicopter
gruber
beneath
tibet
gekko
gossip
overwhel
affirmative
300
70
aa
cin
ced
cod
cows
dap
fare
gates
hound
hats
jas
kob
kitty
lant
lod
mace
maude
nay
nuke
oth
peep
pms
pension
ras
rend
sway
sang
satch
tuck
tum
ties
tender
vow
vader
wiz
##tight
##mart
##mund
##roth
##zak
##ih
##dog
##fight
##fol
##fire
##bra
##wall
##west
thus
##eria
##inite
##inging
##lling
##oring
##etor
##asis
##utt
anderson
rebels
meals
haf
stare
streak
lill
liable
##cel
canad
##illes
##urre
##ctions
justin
chairs
chased
##iel
##rav
somewhat
manuf
orson
##ulars
##osaur
##ifies
arguing
##obot
spite
spoon
brass
twent
amend
ambit
claws
lech
enzo
afric
##ember
unicorn
blessed
scoo
godfather
helms
roach
emil
leavin
kindly
listed
realistic
flav
disag
disres
household
resume
parade
appet
##hne
##phin
attic
fold
finance
harvey
dealt
##avis
drif
barrel
eddy
presum
drinkin
easter
booked
eval
evac
copper
grain
awesome
confusion
confront
##rete
lighten
lightning
explore
consult
steering
income
depth
##enses
##apping
admitted
retreat
patron
petty
subpo
memo
horny
imperson
medium
transm
oui
errand
surprises
owl
explains
images
freaked
operational
toto
cafe
micheal
superst
penit
jefferson
palmer
pressing
brig
##ikes
destroying
communicate
199
cigars
visitor
circle
rolls
rolled
##ugged
filling
hyd
castor
philip
cellar
smokey
electro
massey
julian
sensors
creed
blocked
vacuum
depending
cameron
pilots
sara
therm
faithful
cracked
massive
ambition
precaut
scaring
identity
originally
motherfuckers
satisfy
suspended
graduation
lauren
roses
galvin
freaks
rabbits
discovery
scotland
militia
talented
buffal
european
purely
cosgrove
mortgage
cabinet
pillow
##ylum
commitment
dumper
lesb
internet
barnett
dimension
december
hoover
gabe
despite
fraud
porno
anxiety
chinatown
dizzy
predict
caviar
picnic
dedicated
kilos
wigand
methods
hustle
negroes
shells
patriot
alpha
slaughtered
pooch
greetings
wrapped
isolated
controlled
writers
yankee
integrity
klingon
##rupting
corpse
administration
arcade
certificate
enquirer
sentimental
stewardess
sabotage
pencil
unstable
acknow
airplane
supreme
orchestra
bianca
portrait
eugene
thieves
encounter
ambrose
moraes
meteor
hampshire
daphne
lantern
manufact
disrespect
26
99
ais
aaron
bien
cum
cort
dary
dork
eri
echo
fug
hend
jig
jag
jade
kry
lud
mour
mature
nud
null
py
pulse
ratt
rene
tel
tiss
wich
yield
##mes
##mers
##mine
##ns
##nia
##uest
##uations
##rin
##rent
##rest
##lene
##hard
##gal
##gia
##fus
##fman
##yy
##kers
##oups
##inter
##atures
##anity
todd
toys
toky
##llor
##oran
##edge
##arine
rebe
webb
haz
##lection
shan
shang
shared
##immer
donut
knives
stim
stable
##child
##ads
noises
##eem
butler
allison
allows
asia
asylum
shep
chum
chek
chump
atomic
##icating
##icians
ali
alto
##ilated
telly
loaf
user
sept
##osh
##osure
##ifton
conk
amen
amour
amnes
trous
ages
clifton
overd
##emann
unw
unple
marion
maroon
marla
scrap
hug
lovey
rogers
joker
##active
believing
emma
elimin
throws
##udy
crummy
smear
maze
homeless
perimeter
monkeys
phant
deadly
craz
traps
fathers
housew
##shop
interrupting
residence
parano
insom
slay
slob
slapped
hardest
breach
##mmm
##onsider
harrington
chrom
barren
excess
highland
##ibilities
setup
gene
##erton
heartbeat
signor
##ivan
lighter
explode
indo
shootin
factor
install
perfume
expectations
benn
disconnect
watergate
messing
burt
burg
elements
murderers
pains
painful
natives
##umbled
refuses
extension
classified
distant
testing
reporting
dicks
owed
ruining
psychologist
merlin
condem
martins
gently
penelope
carryin
sunlight
sunshine
destruct
valiant
courtroom
paperwork
irres
irrit
peach
buster
sherman
footage
acres
torch
daisy
lowell
rising
fortress
ladder
ninth
verd
disappearance
macfar
continent
masters
hookers
crashes
towel
january
symph
tearing
civilized
pageant
performed
speeches
weathers
magician
sweating
switched
kaye
nails
complaints
bonus
employees
domino
domestic
horsesh
pregnancy
immig
approaching
funds
logic
crowded
perspect
management
association
spells
kidnapping
hypoth
rarely
mathem
pierre
entertaining
defendant
journalist
leslie
electricity
kathy
katharine
counterfe
spooky
swinging
replaced
struggling
infection
rehab
gregory
experiences
picard
##weight
virtue
procedures
atlanta
occupied
lynette
declare
traditional
debts
wealthy
burglary
iraqis
tuttle
companies
delighted
retirement
toddy
snoopy
anesthes
grunemann
schmuck
instrument
suspicion
pigeons
goofy
forbidden
defeat
guinea
nichol
manifest
brenner
strategy
fantasies
sicily
lestat
dawson
eternity
curtis
naughty
autopsy
bizarre
african
subpoena
penitent
buffalo
tokyo
rebecca
shangri
chekov
amnesia
unpleasant
macfarlane
34
42
800
90
bore
bain
bate
baked
cork
cuff
dot
dell
dess
dated
ec
era
fink
fist
fade
fian
fuse
fract
fries
gt
gw
gulf
hick
hiring
kast
kau
lend
lones
loos
lugos
mild
maps
pam
pus
pul
pub
pork
penth
rash
tah
tapped
veter
yak
##oen
##rod
##rence
##rise
##eger
##zes
##like
##cet
##card
##hy
##giving
##dor
##fall
##jah
thunder
##erd
##erate
##atra
whew
##orc
##enstein
anton
##isco
##omed
##utes
beavis
wee
doo
##stood
##step
shag
shining
##sex
##alt
donny
sty
stoned
noir
##anted
##ooke
##urer
neural
sox
abort
abortion
##ctic
##rich
pritch
anyways
anythin
veins
##ppie
##rain
##raph
wholes
deed
herbert
seeking
saints
manual
loans
##igo
##isticated
##ulpt
semin
exorc
##olo
##olet
##abouts
##obe
##obile
bras
brody
brok
brenda
twelf
##aparte
leia
enth
enlight
quince
##emm
movin
mollie
mueller
##elway
killaine
marine
maria
margie
intri
scal
scandal
sculpt
wrist
grid
groups
jockey
mustang
poster
keepin
partial
mines
pervert
understudy
flush
##intend
##ogen
##ques
guessing
tomato
headaches
laval
interior
roommate
hardy
johns
sixties
watchin
finn
finch
payroll
compar
compos
compreh
edmund
damnit
counted
decency
promoted
graves
obl
jeopard
##erts
##retion
importance
discreet
discretion
buys
sickness
saloon
arts
curve
concrete
millionaire
redi
dragging
recording
annual
studies
refr
profits
hairs
radiator
jerome
population
conductor
freaking
maxwell
michigan
supernatural
quicker
costello
consideration
burnt
demol
roads
shortly
bribe
conviction
convicted
damone
chiefs
norville
neglig
denver
upsetting
##ovan
responsibilities
armor
wooden
directed
continues
castro
obsc
survival
politician
innoc
exceed
travels
traveled
buttons
weekends
orient
fingerna
terrified
lyin
settlement
identification
scrub
claimed
germany
flea
volume
directors
cycl
femin
bonaparte
employed
described
cornwall
reactor
corridor
graveyard
celebrity
executed
punishment
tuna
mobile
reference
vulnerable
unlock
maiden
fabric
junkie
stabil
jacques
avoiding
occasionally
underwater
lizard
acquaint
##ooter
deceased
mackelway
bounty
shaft
##check
vehicles
vincen
determine
motorcy
creepy
pursue
micr
containment
cruise
accomplished
narcotics
transportation
dudes
gathering
misunderstanding
misunderstood
bourne
cloak
alcoholic
laboratory
northern
charts
chemicals
friggin
adults
dwight
vicki
heights
glorious
alphabet
increase
nanobot
october
vigo
permanently
adopted
persuade
jeremy
##iciency
guidance
levi
global
elephant
torpedo
retrieval
landlord
rehearsal
compassion
cursed
desperately
treadstone
sponsor
scholar
lingerie
allergic
alibi
loomis
overlook
appetite
erik
tissue
wichita
september
conklin
trousers
perspective
bateman
dessert
kastle
lugosi
pritchett
twelfth
enthus
cornwallis
32
38
41
48
auth
aster
barth
banged
baker
bryn
bacon
coy
dere
dash
dmit
eject
fest
hink
jar
lle
lust
miz
oo
ost
pine
pne
pens
sessions
tee
vood
wo
wakes
zuz
##mia
##piece
##ae
##ait
##sky
##zon
##lar
##cake
##fr
##fuss
##woman
##11
##jo
##jud
thigh
##oust
theor
##oning
##anas
##anian
##inge
whe
##arms
##omer
##ometer
##utter
whatso
beard
beers
begged
##leine
goeb
shin
shipping
##imo
knots
lil
##chez
nolan
##omew
##amins
sober
alleg
##river
chi
chow
choo
chalk
choke
upside
##elled
wells
##user
mankind
teller
##oli
##olomew
backed
backyard
spats
theme
brock
mayh
caro
carri
careless
amanda
##bec
peck
##emois
une
unpr
unne
blink
blake
blair
marx
marlon
##issippi
scored
lovebirds
longest
embe
elij
##uding
##fton
missile
mississippi
fazel
handles
##orde
madeleine
morris
serves
strung
interpret
resort
resem
parry
proven
reconsider
divers
funn
cheers
hurric
persons
glimp
accuse
clevel
ahm
prel
invention
caps
tension
##etto
stuffed
barney
edition
prescott
sleeps
restrict
christy
casey
bookstore
##gins
wished
indicate
braces
mademois
conserv
huntin
stepping
chancellor
dinosaur
incomp
##oked
salvy
burden
calc
eleanor
##ippe
articles
##apsed
stupidity
recorded
richest
extract
experts
lando
landon
contrad
nearest
loses
losers
protest
marker
controls
penal
##zzo
attacking
##bridge
basil
ordin
creating
respected
reaches
##iki
peaches
advised
motiv
sandro
welsh
ringo
devices
devoted
carlton
risky
mainfr
digest
digital
campus
greenleaf
cept
circulation
sanchez
disappearing
horseman
estimate
preparing
cellular
elected
idiots
tracked
approved
approxim
percentage
yelled
examination
##ographic
relationships
panick
existed
##ropol
sarge
doris
opinions
massach
projects
characters
identical
purposes
opportunities
cycle
mutant
villain
mentally
shirts
pearls
disposal
kidnap
spreading
scheduled
stabbed
clayton
dental
principle
materials
shhhh
pirates
insisted
incidentally
##igel
sophisticated
bounce
phillippe
frag
tossed
channels
recovered
affection
etc
caval
##rogen
lombardo
##regon
relief
rexroth
dyin
fletcher
gloria
obliged
##irsch
crippled
detonation
greek
thrusters
potatoes
##borne
haunted
gratitude
acceler
undressed
arrogant
hysterical
amateur
stubborn
gibson
sullivan
lyssa
shuffle
maneuver
disguise
einstein
rendez
wizard
hafta
lechter
aisle
krypton
##hardt
hazard
phantom
fianc
kaufman
lonesome
penthouse
composer
bartholomew
dmitri
pneum
voodoo
zuzu
whatsoever
goebbels
unnecess
elijah
fazeli
hurricane
glimpse
mademoiselle
aah
auction
bah
bats
cz
cate
clem
capp
dorm
duct
eter
faking
fier
fountain
hast
hana
iced
kinc
kron
lump
loop
mt
nations
nigel
oven
ols
panc
peak
rena
soo
sings
tires
ugh
va
vanc
vital
voc
wag
wud
zomb
zira
##mel
##master
##pons
##post
##name
##names
##nik
##sp
##rator
##ext
##cony
##iors
##vous
##fied
##bro
##wely
##ouver
##erman
##inent
##inery
theft
whiz
##org
##orty
##enmeyer
##isance
##eton
##itan
inapp
inex
##utch
whati
beware
welf
haird
##keep
stad
stag
stakes
lions
##cht
##chief
##adays
##ams
##amis
##ooper
soze
ally
##oded
sump
##opia
uptight
##icit
##icut
vel
worf
frog
frost
nowadays
alg
saus
plaza
##ulator
sefton
arson
##endel
spots
conway
convert
##umann
brooke
twin
amuse
ammo
tray
trim
trop
enh
enlist
pepper
quinc
drool
drama
betsy
bluest
##elance
##elius
##issy
scre
##thouse
happenin
wretched
sorrow
gro
grendel
roots
wald
finder
empt
##asses
kidney
crumb
croc
adren
advisor
swiss
hoff
mint
minim
uhm
lotte
courthouse
misses
missus
flop
assess
##inton
suppl
phoen
traitor
sera
lax
##shed
##print
stroll
intercept
schiz
insign
##acing
contempt
##igned
dieter
turner
readers
##mmmm
clement
harvest
compartment
##avitz
farms
barber
senor
endanger
prescription
childs
childish
eyed
figger
darrell
supposedly
hopefully
complications
compliments
infer
franky
frankenstein
sylv
deaths
##ontane
delicate
cora
discoura
##oking
alma
##ologists
retain
burgel
regiment
regulations
liking
subtle
rae
proposing
grease
distrib
impat
transit
##tenance
radical
psychopath
jerks
felson
squat
##rams
prototy
freelance
##coat
vibe
paula
pauline
martial
mouths
kisses
##visions
fixin
earthqu
musician
valet
courtesy
##boro
growth
solo
##aaa
sherry
torrance
appreciation
sadd
violated
claus
ceiling
circles
gerald
roller
models
connecticut
apologies
joining
suggestions
threats
bowler
grounded
ants
senses
rains
moonlight
cups
searched
supportive
organized
attraction
shocking
balcony
professionals
randall
dupl
##lights
marshall
lindenmeyer
puzzle
rapid
interviewed
virgins
brandy
olive
urge
rosa
galax
venge
provided
mccord
hamilton
disturbing
ripe
gambler
broadway
corners
cornelius
chopper
encourage
witches
cuban
magnetic
pumping
150
associates
recommended
guaranteed
whaddaya
injury
typew
hypoc
jonah
occasional
panthers
cynical
banging
challeng
despise
250
oooh
shadows
clouds
benefits
drowning
kiddo
chewie
vietnames
pursuit
candles
literature
teenager
##regard
initials
horns
##worthy
assassination
bourbon
crooked
dwar
companion
jaeger
paso
dutch
duties
nuisance
nyah
whispering
maureen
permanent
lonnegan
adopt
nasa
bundy
helmet
grocery
heavily
sofa
toxic
forgiveness
muffin
inspiration
corrupt
multiple
dixie
##alogue
specimen
underestimate
contractor
australia
gaston
meeks
flaemm
scenario
lillian
canadian
lesbian
altogether
paranoia
bennett
fingernails
acquaintance
llewely
wheat
cleveland
mainframe
approximately
rendezvous
unnecessary
eternal
kincaid
vancouver
inappropriate
welfare
quincy
bluestar
phoenix
vietnamese
llewelyn
29
44
ak
bir
bic
cau
cunning
dine
fib
fert
fetch
gown
horm
hating
hicks
ils
kinky
ling
lag
lund
moth
obe
ounce
pace
rave
ripping
sou
tid
tch
vows
zavitz
##och
##overs
##uy
##uating
##sis
##rr
##rust
##rine
##rane
##rina
##cal
##hop
##iology
##gus
##front
##bat
##bby
##break
##yll
##ouri
##onic
toon
##lla
##lled
##orp
##oral
##orous
##edict
##owing
##isk
##etics
##itter
##itage
##itary
thatcher
##uties
rek
reel
revel
repress
revers
wease
meyer
hauser
shir
##secker
##iman
donít
donovan
stool
stead
##chev
notion
notions
##ithium
##ammit
##enton
##entially
candle
##illery
nev
nex
chad
chili
##icity
##racks
##eston
worsh
worms
fridge
##acks
herb
righteous
lookit
mansion
##gey
loath
logan
##ista
whereas
##olt
##olph
arse
aramis
spear
spice
spaced
conver
conrad
##ours
##umin
carson
trump
aged
leff
enid
enri
makeup
overse
mold
moore
unload
blunt
hass
hash
marcia
intimate
bugging
coha
scound
scars
scope
lovejoy
helena
grub
groom
waving
remo
##anges
emer
leap
leagues
##assing
##tage
##perd
adolf
adrian
hog
mining
minus
uhura
monstr
missouri
assured
phase
phoney
pharm
disrupt
##quire
crabt
crabs
##eeney
##redict
mindless
headlines
resident
resurre
schumann
prostitute
boz
boards
slit
slaves
##arez
attending
accus
accoun
accusing
foster
finer
tease
text
thanksgiving
foundation
payin
prejud
tennes
##etts
situations
pawn
differences
barker
barracks
endless
sounding
pickin
metropol
restore
prices
darned
evolved
skipped
skye
millie
speck
graff
##otto
passeng
cola
colomb
signals
##ivable
indicates
##iera
hunger
hunsecker
blooded
steed
geoff
dela
starve
starks
##insk
firemen
depri
##ensity
admission
messenger
ridin
regula
artoo
touchy
windham
magua
louder
rafe
midget
perfection
classy
gladly
experiments
transpor
completed
addict
specialty
rufus
absent
##ervo
accidents
tyr
dresses
supervisor
purity
publishing
publisher
sunrise
reaching
umb
irs
tougher
turf
denying
sandra
closes
torment
layin
cardiac
spacecraft
carlotta
bottles
maine
mainland
maintenance
teams
saddle
geek
cecil
posters
accountant
witnessed
estim
particles
delivering
angelo
heroic
quarantine
masks
idiotic
physician
difficulty
approval
loading
observe
pushy
##works
holiness
potter
sharing
pinch
pinned
talby
panel
conditioning
theresa
climbed
organize
deserted
receiving
archer
authorized
keyser
ambush
lucas
subjects
grades
rosen
requests
angie
hawkins
ethics
wilh
accessory
broads
gallery
whisky
positively
180
battlefield
punish
representing
representation
representative
snapped
cosmo
vallens
dishon
pumpkin
##uzzy
stinking
terrorism
trading
hypnot
uniforms
holler
expertise
jonathan
reno
rennie
journalism
tanker
wesley
wendell
panther
products
1000
optim
bartender
recovery
application
oscar
explosives
conducted
katrina
microw
gregor
experiencing
humiliated
ignorance
misunderstand
farther
mechanical
scenes
independence
declared
fortunately
sympathy
commercials
sinking
licked
salvage
industrial
bulj
tamper
cuervo
unpredict
unlikely
dillon
georgia
vegetable
hutton
assembly
discipline
frequency
joanne
nasal
##donald
instruments
suspicions
rusty
inherit
observation
trauma
substant
rmph
ropes
interference
electronic
colleagues
havana
narcissus
dowd
bronx
yonder
capitol
utterly
implying
specifically
volunteered
stensland
superhero
cedar
##folk
twentieth
amendment
ambitious
scooby
disagree
mourning
barrenger
symphony
broker
comparison
refresh
panicked
massachus
fiancé
pneumonia
categ
fierce
kronos
olsen
whatiya
hairdress
stadium
ilsa
weasel
lefferts
cohaagen
crabtree
tennessee
passengers
27
47
4th
85
ale
aub
bot
bim
bib
bates
bik
bij
cush
clemen
cbs
dors
dwell
eater
ecc
fuzzy
gil
gem
gide
hirsch
ive
jets
kre
kore
lena
munch
nup
rul
riz
ramp
rasc
sque
sissy
tux
vest
vain
votes
wl
wan
wilt
wiring
##tes
##tiff
##oven
##occ
##mb
##nge
##nels
##uge
##ski
##rill
##rations
##riter
##rari
##zi
##lay
##cuff
##ii
##iate
##iary
##gans
##fty
##bin
##ban
##bok
##bility
##wash
##weed
##10
##eres
##inck
##inished
##atin
ana
##edith
itch
##etical
##otine
##itations
##itals
##asm
heine
heming
##ereo
rely
rebel
beeth
##levant
##iders
##idote
##idency
golly
shade
shorter
##ala
##ims
stoo
stif
stitch
stashed
stella
stereo
lia
##chess
##allel
##lyss
neb
nels
sollo
abbe
outdo
##inks
gotcha
##eable
##oper
debi
##ilation
sayer
##usinsk
mans
pla
plank
plato
##igod
##iggins
ohh
##ifty
##ifully
gump
arlo
como
comed
spain
spine
spontane
offs
offend
offensive
mayfl
caring
carries
##apo
claw
##bean
download
moreover
bets
betting
blades
mule
##elt
##elm
marrow
cox
scooter
undert
gras
grusinsk
newcom
imbe
plead
##pless
emm
lasts
elo
throne
##uda
cro
crock
##izations
swat
smashing
##ptic
hoax
perry
flunk
flaw
flipped
suppress
handcuff
startin
phyll
hearst
##quette
##quila
traject
traced
##iously
interpol
intercour
reserve
schuy
param
insulting
##orrh
appleton
context
##ignment
warner
##roid
polar
glam
glue
reader
planets
teasing
harper
harlin
harrison
deser
paw
barbec
pickup
dolls
eyel
apiece
hotter
promising
##iba
reliant
skating
honour
bedtime
fighters
graph
awright
##gina
info
infl
bully
simulation
confuse
confined
hearted
beha
behold
##iva
madness
humble
hunters
##lands
delmar
stares
corb
corny
incap
discl
discount
##ensen
##ensed
freely
sexually
admitting
salon
##ucing
defending
##sylv
shipment
grandchild
artific
secretly
sample
subc
lounge
raft
native
ordering
musk
midge
classroom
absor
cooler
squir
nickname
protocol
accidentally
meredith
freud
caen
caffe
maximum
publish
##ergast
posse
positions
floors
sunk
##bted
majority
##bris
misd
pressed
honorable
values
feast
##aldi
##maid
creates
packs
brien
norbert
eyeball
appreh
armored
located
locals
risking
##ilians
fears
mainly
vanity
relaxed
campbell
hallway
boarding
allowing
cease
verona
verbal
limb
disappears
required
tasty
amazed
addressed
equals
gardner
marriages
suffoc
antidote
definition
sensible
loads
recognition
obsess
creation
mcg
##burgers
shari
tricky
tales
ruben
towers
juan
buttle
melvin
theres
arrives
organism
detailed
terrifying
italians
concerning
massage
masseria
issued
technique
embarrassment
performing
duh
duval
bells
precinct
cousins
##ophone
videos
bananas
combined
requesting
anglo
complaint
tourists
forehead
employment
relevant
severed
languages
repeated
execution
funding
plaintiff
malloy
appointed
references
included
albania
activate
negotiation
miracles
shifts
associated
partnership
principles
gaining
compete
priests
barnhardt
currently
rigged
mattress
shaving
reservations
demands
mummy
mumford
warden
cadet
ummm
critical
applied
chewing
cooperation
qualities
explosive
affected
dewitt
linked
micro
vito
wrecked
mysteries
warriors
humiliate
ironic
oakland
mechanic
revolutionary
gestapo
sympathetic
hustler
tribune
bolt
baldwin
duffy
satellites
confidentiality
2000
cheeks
springs
sparrow
delightful
instantly
tactical
##lowe
molecules
georgie
insec
battles
mandrake
pupils
##writing
gruner
memorial
receipts
rejected
bundle
explorer
pigeon
measures
wrestling
synth
parasites
pennies
pennsylv
pipes
plumbing
inspired
annoying
involvement
democratic
historical
quadrant
skiing
wacko
prettier
immortal
dreadful
pendergast
irrelevant
romulan
accompany
boule
##thorne
columbia
refrigerator
jasper
otho
aliens
chromium
irrespons
horseshit
counterfeit
brynner
shinzon
czar
sooze
prototype
typewriter
rekall
enrique
wilhelm
microwave
buljanoff
hairdresser
bijou
clemenza
gideon
rizzo
beethoven
sollozzo
grusinskaya
phyllis
trajectory
intercourse
schuyler
pennsylvania
irresponsible
33
55
911
au
aer
alyss
bind
bont
bial
bitten
cot
cine
cue
dak
dried
dair
dances
epid
fet
gle
gina
hoop
jin
jude
jumbo
ker
kle
kur
kitt
kitten
motto
nite
nipp
nba
oy
pim
pans
ratched
sip
ti
tart
tau
tipped
tucker
ud
vet
viz
vald
vander
wisc
zip
##top
##pace
##psy
##aac
##nob
##uett
##rum
##rous
##rative
##rants
##robe
##lain
##cest
##hm
##hor
##hal
##houses
##gant
##gio
##dn
##did
##dling
##fect
##fare
##bott
##water
##wyn
##inated
##ata
##atu
thesis
##anium
whitt
whipped
wheres
##enson
##esus
anat
##owa
##aro
##isin
##ision
##etz
##omin
inev
##utz
heir
heath
ree
reib
mead
hail
hacker
isab
isaac
shab
forens
stun
stern
liza
##verick
##verty
knowin
##chm
##adena
myra
nods
##amo
##amoto
##anton
canary
##allows
sole
abst
##oda
outpost
chast
chunk
chilton
pry
##opy
##opher
atom
##icon
##icable
##estyle
worley
##unting
herman
alamo
##inder
##ilizer
everett
lookout
saves
##ively
##uckle
seas
segr
seasons
##osity
arnie
arlyn
##endar
##aborate
willet
backing
backpack
lett
spic
spies
conor
##umble
brat
bred
troop
##apse
clair
cluett
workshop
overp
overs
overre
aft
drugged
gondor
blo
blur
blend
marv
mariet
marco
marijuana
intu
bugger
##issa
##issom
scattered
hugo
undo
grove
grissom
rooney
newly
joh
giron
remot
##placed
##anging
poe
poke
poverty
elaborate
criss
keeper
swip
switzer
smy
maverick
hock
shitless
hike
lothar
monument
courses
flames
assurance
##cian
handic
runner
disse
disney
disorder
dischar
elsewhere
##shaw
throughout
slot
slug
charter
harding
appe
apprent
babbling
polo
attach
gland
##onsin
financing
tequila
tril
paycheck
prev
preced
mornings
sitter
surfer
barrier
barrels
babys
mets
restless
restored
apoll
beautifully
untouch
prominent
lawrence
secondary
relay
skunk
policemen
grabs
awww
infr
##otte
airlock
aircraft
##nov
trusts
doorway
milton
shoots
delusion
starters
expects
benedict
deputies
freezer
collapse
admired
rides
forged
snot
snatch
snitch
retail
##ucci
robbers
burial
patsy
grandpar
artists
curly
conclus
winch
redne
beatin
livingston
hanged
raven
raving
propag
##umbling
greed
extent
transpl
banking
dickhead
mistress
added
ruins
informant
nearby
felony
squirt
explaining
caf
paste
michelle
kissinger
coverage
##zzzz
judging
drugstore
protective
treason
##brush
casan
casper
##heast
smartest
valid
shortage
deepest
boatwright
neglect
radioactive
armitage
devast
192
rises
bombed
bleek
halloran
verse
verge
circuits
gerry
limp
healed
correction
karla
colorful
electri
appeared
##aius
obser
prayed
sheriffs
beaches
blocking
surviving
mcint
admirer
vacant
civilians
exposure
taping
portal
portion
portland
collecting
##roph
reminded
grif
sarc
meaningless
screamed
arriving
##ega
archd
archie
duchess
generation
lasher
precogs
luca
crawled
stockings
claiming
rambo
ramona
videot
hatred
banished
flee
ashes
ratings
cyber
arguments
employer
ethel
adams
domini
goddamit
congratulate
shrub
shrimp
gardener
celebrating
chops
fundament
taller
talley
indiana
tunnels
referred
cartman
cartoon
inspection
punched
servants
lednov
albanian
roderick
activated
lapd
fiji
amongst
strangest
persist
unfinished
terrorist
vari
##offs
renew
fascist
wolfi
ferrari
implant
experimental
negotiating
attempted
despair
astron
hobbes
pouring
wardrobe
applejack
pitcher
terminate
cheerle
flattering
membership
lacking
vitamin
troubled
iii
teenage
teenagers
##ebra
prosper
producing
gutter
litter
becky
convenience
travelling
kilomet
whistler
replacement
savage
sacrificed
lynn
pitiful
mechanism
northeast
spinal
tribun
bolsh
waddaya
premature
tammy
scrape
vickie
##ecou
tranqu
burglar
philosophical
flowing
volunteer
tactics
platform
resignation
increased
350
pasadena
bushes
established
muddy
athos
imperial
recruited
recruiting
essential
gillis
controlling
favourite
khrus
anesthetic
intimidate
grammy
tatum
tempted
signing
praetor
unreal
swedish
slimy
republican
economic
jeremia
reinforce
crusher
selena
bubber
bubble
riddick
retarded
turkish
colleague
wilderness
democrats
sssh
commodus
chronicle
sutphin
sustain
cosmic
caution
korea
saxophone
arroway
override
sniffing
curtains
purchase
meltdown
demonstration
alaska
distinctly
nashville
hughes
blacksmith
cockroaches
acknowledge
insomnia
immigration
nicholas
corky
edmunds
innocence
vincennes
microsc
scholarship
enthusi
authent
carolyn
conservative
incompet
insignificant
impatient
dwarf
unpredictable
massachusetts
hemingway
imbecile
eyelash
caffeine
boulevard
alyssa
bontecou
bialy
dakota
taupin
viznick
wisconsin
reiben
isabella
segretti
gondorff
marietta
switzerland
apollo
grandparents
conclusions
kilometers
khruschev
jeremiah
69
600
78
bos
bers
bix
berg
bode
cd
cors
cair
coop
damp
dah
dys
fitted
gat
gust
gand
hides
higgins
ist
kee
kop
lent
lain
lass
lens
mice
mph
muss
moose
moses
nude
nune
nsa
oly
ober
oona
oregon
pest
pame
pint
pins
rim
rally
riv
render
rye
rival
siber
tink
vap
vile
wart
witty
xxx
yog
yank
zoe
##try
##tub
##mun
##pit
##pool
##ais
##nity
##uild
##rom
##rimin
##eur
##zie
##zini
##lson
##lets
##lift
##letic
##liest
##cat
##core
##cup
##hound
##good
##dles
##drop
##bc
##bis
##buck
##bath
##buster
##you
##wer
##will
##worm
##jamas
thorn
thail
##erone
##inction
##atr
##atore
##atisf
##aning
##anche
tol
##ingu
anten
ancest
##owl
##aria
##eta
##etric
##iti
##itas
##asions
##reed
heap
reign
reph
whatt
beep
beverage
bemb
haunting
dose
##leen
##idt
##storm
##struct
shatter
shades
shorty
forcing
stash
stumbled
stutter
libb
##verse
notified
noisy
##antly
##entric
nek
alla
allies
outstanding
aspect
chaz
sued
##opic
##icial
##ando
##ieval
##rag
##raine
deploy
alger
alimony
sap
sakes
orb
lov
##igur
##igning
##istan
##istically
whereabouts
timer
##ulating
seiz
guer
exotic
##astics
willya
spa
spitz
conner
convey
##umper
cargo
carmen
ammun
tresp
trinity
lease
ench
needy
overcome
overtime
peop
peking
quint
moe
unarmed
blamed
blaze
mare
marse
marble
marines
intest
coats
scru
scores
scouts
##thr
hubley
daytime
groo
grind
##ipher
##wny
mustard
##angs
emph
##adys
leaks
##adek
elias
##uddy
probability
crude
couer
courier
sweeney
smiles
hoot
lottery
acme
flick
flare
floyd
assed
assets
handing
handful
handwriting
##orda
phen
##ilda
secured
disarm
deadline
mothersh
##ateral
##eya
laf
##shell
interv
camel
moms
insert
insists
insanity
sling
slower
slots
slipping
slaver
recorder
diver
dialogue
warped
##ormal
babes
glove
accomm
finishing
teas
payday
payments
terrain
inviting
invasion
invitations
desires
##avius
menace
stuffy
paley
barf
barks
barrett
##ashi
holdin
wonderin
gibar
meter
preserve
presidency
arena
easiest
christs
christie
standin
apes
figuring
forgets
evident
millenn
youngest
fightin
obtain
infirm
worryin
bullsh
goddess
shutting
airlines
significant
trusting
lighthouse
dreamer
sybok
indig
indef
indicted
brakes
bracken
madmart
humperd
consist
hunh
hunted
starved
reasonably
##neider
incor
incom
sidewalk
##ioces
truths
lieb
colleen
snort
robbing
strapped
caliber
calendar
elegant
regrett
patio
artistic
artillery
peterson
husbands
windsh
sweetest
painter
redhead
drain
magruder
subt
presidential
raises
richie
richards
belg
dearest
greer
refund
reflex
extinct
extortion
horace
distingu
testified
medio
medieval
destination
erase
ergo
##awk
rupt
merced
freight
teaches
flyer
topic
supermark
##oca
pleases
##ounced
honesty
judas
caswell
treats
##heim
misplaced
davidson
connor
commands
involving
##ificance
drunken
strongly
junction
slowing
damon
norfolk
shermin
footstep
##boards
pisses
communists
bombing
screwy
hmmmm
fredo
postp
buncha
homicidal
shops
##cuted
macle
lotsa
apologizing
healing
suckers
esther
equality
particip
cowgir
##anners
dumbest
suggests
quarrel
masterpiece
princeton
suffers
sensational
observed
crem
ghetto
guarded
guardian
smokin
exposition
pinta
politicians
towels
##itorial
dumps
juarez
panes
collected
butts
piggy
grie
reprod
##paper
harmony
cocky
duane
mixer
bella
marshm
simpson
introduction
virginity
ramelle
gangs
banner
ignored
ashore
switching
degen
##ilsen
tourist
ethical
austria
wilkes
britain
moods
developing
bayon
mailed
kross
114
nicolet
nicotine
skywire
approached
encl
lifestyle
##icycle
butterfly
restaurants
includes
bernard
albany
napkins
pumps
jessie
rheya
woodsboro
cathed
elevated
stephens
briefly
corporal
regrets
sedated
##club
competitive
gateway
ferrie
currency
acquainted
universal
puppies
joyce
hayes
nursing
nursery
hobbs
stamped
phillips
commerce
novels
shelby
caddy
kimber
paintings
automatically
versus
holidays
ministers
pistols
lobster
convincing
links
contained
punks
rags
virtually
relieve
humiliation
humiliating
##ulsion
trembling
clowns
minority
lynch
mckin
##lihood
surgical
shotguns
ultim
##xxx
suzette
blessing
crooks
swallowed
championship
analyst
omel
##walker
luis
pooh
establishment
hitchh
nellie
athletic
##arnation
battal
khan
hemorrh
stalling
schmidt
consciousness
lengths
inherited
maniacs
leaning
revealed
stalker
altitude
substance
torpedoes
roper
tramell
inspire
intellectual
mimi
exhibition
announcement
diplomat
inquiry
conquest
masturb
permitted
sleeper
hartman
krauts
scrambled
stranded
biscuits
fossil
gauge
coconuts
calculated
thoroughly
spectacular
outrageous
protein
spanky
overheard
unemployed
remarried
titanic
fiancee
lodge
swayzak
superstition
precautions
fugitive
loosen
exorcism
festival
woah
prelimin
restricted
penalty
fragile
shuffleboard
crocod
adrenaline
minimal
clementine
sylvia
discouraged
duplicate
obey
ravell
shirley
nexus
monstrous
accounting
umbrell
eccentric
wladek
##occup
stifler
nebula
outdoors
corbett
incapable
subconscious
dairy
inevitable
lettuce
remotely
smythe
casanova
archdioces
tribunal
bialystock
cairo
gandhi
kopals
nunez
olymp
pamela
xxxxxx
thailand
rephrase
bembry
ammunition
scruples
mothershead
accommod
gibarian
millennium
humperdinck
mercedes
footsteps
36
63
65
87
aqu
bm
bry
bake
bak
bicycle
cmon
dand
dul
dab
dice
dile
dott
dual
duel
flem
fern
gurn
gals
gaff
hin
hed
hath
hare
hilar
ií
iowa
kw
ketch
kessler
lark
lounds
lining
mit
mop
mend
mma
mirth
morde
nause
oe
ola
oops
pion
pix
pino
poop
rut
rus
rapp
sven
sought
ssh
samp
tying
tijuana
vot
vas
vast
vene
vatic
vista
wri
wool
wench
zion
zammit
##oided
##ointing
##mind
##mons
##most
##nea
##nard
##upp
##ucc
##sucker
##sberg
##rid
##rater
##rings
##rime
##eenth
##eanor
##zs
##zas
##zetti
##lace
##cur
##cap
##cula
##hen
##holes
##gil
##vale
##flies
##brew
##yamoto
##xl
##xious
##wa
##wl
##wanda
##jan
youd
##eroph
##inn
##inin
##inos
##innat
##oni
##onent
##anne
torah
whips
whites
##orus
anarch
##owitz
##eting
##omi
##omen
##omber
##asa
##asers
##rep
input
##utions
##aying
heater
hebrew
reich
reinc
beet
begg
weary
meg
haired
docks
##lee
##stream
##ghy
onions
sham
shee
shaman
##sexual
fores
ster
sten
stack
stump
notices
##amatter
##anth
##illion
##ooping
areas
sooth
abbott
allig
##inkle
##rift
##rief
shelf
chand
##oped
##opus
upbr
anyplace
##icia
##ieu
vein
velv
##racy
##unity
dele
decks
deception
debris
frames
seeks
alarms
##inda
manzetti
oral
oranges
organs
##geois
plaster
plumber
timmy
##ulu
seamus
gund
##oline
##olia
##olete
arra
arist
arctic
##abilities
##ounding
backward
lethal
spike
sperm
brid
brett
brung
carved
carav
carrier
amity
amused
##ousing
agitated
clitor
leons
leash
happiest
overt
overboard
overload
peasant
quart
drisco
##empting
moh
unnatural
betcha
bled
bliss
blaz
blaine
##berman
##berries
mario
intel
bubb
coch
##agan
##agious
##agara
##aggio
undead
wrists
soran
thoughtful
grill
grange
roston
newt
newsw
jock
##actory
believer
mustache
##iche
putt
remorse
empress
poking
lasted
leaf
elbows
elbow
crm
crops
ads
adon
adore
minors
mineral
greatness
homecoming
uhhh
perse
doesnt
monk
flour
faerie
actin
listenin
playboy
##ogged
startled
deadbeat
cracks
##shi
doneghy
reset
reserved
parach
proving
boast
yale
##acs
slash
charenton
contagious
##angeli
dial
warfare
sonora
functions
fungus
chevy
##phins
attended
attempting
glance
glitch
##mma
foll
##ggers
harms
ahold
trifle
preoccup
dealin
compulsive
desec
farren
drivers
barge
barking
barzini
cutest
metro
pointless
bookie
unto
promote
##peed
##ibles
skim
skate
mille
##ceptive
grape
gravy
questionna
infat
infilt
earrings
biting
colet
indict
induce
##ieri
madonna
consent
consuel
hunk
hunner
hungar
bloodshed
steer
geese
delusions
starboard
##cco
blackjack
dino
inclined
disco
waterfront
bodygu
snuck
defect
calf
regist
esp
sweeter
reduce
reduced
filter
dracula
magda
subd
uncut
orderly
musket
greene
clearing
refusing
refuge
extrater
bitching
glades
testifying
transition
transvest
transform
banker
bankrupt
ern
err
erotic
surprising
cooling
catcher
squire
squeez
losses
coffins
hospitals
fastest
accidental
condom
imagining
wallpaper
pasta
privately
hospitality
repairs
dresser
superstit
superintend
##ocated
doucet
oughtta
purg
macho
blowin
rays
jefferies
considerate
##oula
invested
valve
spends
courts
courtney
siddown
demo
##ifications
illust
illusions
roadbl
respects
striking
bastaldi
iranoff
hopkins
advent
turtle
bathtub
jumpy
sandman
crosses
weirdo
footprints
##cribe
elle
ellsberg
layton
catwoman
lowest
carlo
dangerously
woodly
woodward
feared
bleach
relaxing
sadness
silo
roma
stationed
temp
camper
homo
connects
directing
##loaf
investigations
investigators
continuing
tasted
avoided
##keye
preparation
furious
programming
karras
gasket
drawings
##uthorized
datab
seag
clarify
territorial
mcp
mcgr
necklace
##burst
credibility
rainy
taped
views
bathing
sleaz
excels
feeds
dumping
juven
mexicans
notebook
fingered
grift
janitor
meaningful
climate
climber
climax
supporting
langley
balbo
balanced
massac
cooch
cheaper
agrees
generate
belle
belleroph
##ennial
##aminated
conversations
precrime
roberts
weaker
software
devils
warmer
rambling
gangster
uranium
sights
ashley
rosato
rosaline
statues
females
apparent
argent
breaths
101
development
repeating
immune
nicest
skywalker
gaye
villa
meatloaf
plainly
telephoned
mentality
mobil
lifting
blanks
otto
thursdays
oceans
vulgar
chained
rhonda
dusty
injust
injuries
falco
instructed
improved
facilities
canceled
debrief
gained
lesions
wessex
boundaries
acquired
negotiations
rackets
bouncing
demanding
spooked
pornography
beams
chambers
monkeybone
terminated
recommendation
tags
cheerful
##uthers
crucial
literary
##blance
conceal
conceive
tubes
launched
reconstruct
ignoring
fascinated
rotting
niagara
divided
deposits
bourgeois
hesitate
##esthetic
bumped
delayed
sympathize
adjustment
norton
chuckie
alternate
semester
salvation
salvatore
mamma
racing
racist
sewing
monitoring
premiere
distraction
interface
administer
burglars
casualties
cocktails
analyzed
iraqi
pollux
appealing
functioning
subscription
chimney
exceptional
compromised
ditched
unauthorized
butchered
exhaust
prosecution
environmental
restraints
temptation
skept
dalai
exaggerating
economy
reveal
outlaw
parasite
obstruct
obstetric
jellyfish
tolerate
globe
elephants
succeeded
fisherman
miyamoto
parrish
prospects
tackle
exhibit
threads
shaped
brunette
contribution
chronic
tortured
corruption
axe
gymn
klute
kalen
sutton
sustained
nostril
conquer
toothpick
toothpaste
shreds
additional
drexl
liddy
arkansas
cocoa
ownership
charleston
charlotte
petersburg
fossils
ankle
ankles
##oppy
coconut
encouraged
inconvenient
inconvenience
irena
irene
##ukk
bruises
quantum
grenade
resource
resources
sanctuary
rhyme
kobay
##fighter
##initely
drifting
pyram
eliminate
housewives
condemned
anesthesiology
gwen
veteran
scalp
feminine
motorcycle
derek
hinkley
embezz
funniest
wagner
algout
screening
rapidly
vengeance
lingk
lundega
overseas
tampering
substantial
liaison
grasp
barbecue
overreact
infrared
devastated
shrubbery
bolshev
berserk
lainey
antenna
ancestors
whattaya
libbets
peoples
slavery
indefinitely
madmartigan
windshield
cathedral
kimberly
preliminary
umbrella
kopalski
bmw
dilemma
gurney
hilarious
oeuv
sampson
vatican
zammito
##innati
reincarnation
upbringing
velvet
caravaggio
clitoris
driscoll
bodyguards
extraterrest
transvestite
superstitious
superintendent
lundegaard
46
64
72
97
apr
aux
bery
biff
baw
cet
cact
cinc
cries
dc
dag
dade
drey
ewe
fon
fen
fraid
flex
fangs
gel
gail
ig
ion
icy
jell
ka
ky
kap
kla
kaf
lace
lure
laughter
muck
nim
nad
nym
ov
oun
oasis
pm
pi
pom
pall
ply
pate
pause
pies
ponies
ri
rol
rated
rates
rattle
rookie
ruled
siz
sny
sier
tus
vee
vind
vend
vine
vase
wits
xk
xen
yv
yoda
zen
##tz
##tles
##tieth
##track
##mad
##moth
##mary
##muda
##py
##aul
##uar
##uji
##sen
##zuel
##zburg
##lad
##lich
##lav
##lical
##lov
##holl
##iologist
##gom
##vich
##via
##food
##fair
##bul
##bound
##bank
##bitch
##bons
##bury
##bugs
##kar
##kill
##wind
##wide
##word
##weg
##17
##32
thugs
##oubted
##inate
##inople
##ati
##atical
##onimo
##anches
toll
##lle
##llll
##llium
##orld
##enne
##edo
##owed
##arming
##isons
##eters
##itel
##itational
##asher
##asma
##ayed
hee
android
##erella
reek
rewr
whatsa
beacon
meyers
meurice
hacks
halo
##leigh
##idian
##gher
shiny
##kees
##sell
fors
formed
knot
stain
static
stored
lig
lib
##chai
nooo
noooo
nobility
##amous
##amination
##entennial
cans
##urst
alle
alloy
wantin
##rive
##ricks
chis
chau
hereby
sug
sung
suicidal
sushi
prest
prank
prague
upd
anya
##ieg
##ppin
##ppers
fret
frock
herd
sag
manic
manson
manpower
ort
orgas
lovin
looting
plum
plag
plasma
goodman
selection
exh
exits
exley
##oler
hisself
aroun
##astas
somers
##endon
##ablo
##obs
##obar
##obie
##obey
##earing
spac
spunk
brom
brink
twink
mayonna
maynard
mayfair
carrie
##ousine
trashed
neverth
nevermind
clum
clutch
caller
##tyard
pel
peer
peps
quaint
moi
moist
ungr
byp
muham
killings
marce
margin
coil
coca
##issance
scour
scuse
scuff
scobie
undoubted
dayton
underp
underway
sordid
grim
gramp
nightclub
rocco
wah
wage
imitate
afterward
putz
emin
poets
##asser
elsa
olds
##udges
cran
crad
crate
crows
couples
swift
smiled
maids
hoag
shitload
realise
realizes
greatly
peril
perverted
monop
##urned
courtyard
missy
fled
flam
flint
flock
asset
supposing
handbag
phaser
##eph
hearin
disbar
dispens
disregard
disobey
##quin
##quent
##quate
stub
crab
tractor
trains
traces
showers
##mani
housekeeper
morals
morlock
serp
##shots
strat
resid
resolve
insides
proxim
boll
boating
bogey
##acles
##orro
slid
slugg
slugs
slippers
recl
recoll
charms
charging
cheval
##phem
gladys
##onson
foc
harp
tripl
founded
inval
##ettle
##lesley
farce
farrag
pappy
bark
barrack
bringin
cuttin
senators
##ancies
##ultane
edna
editors
openly
fifties
thirst
excal
eyew
halfdan
gunshot
diem
darcy
darlene
##aires
reluct
billions
skank
hitter
genes
genev
await
obed
obno
infinite
bulls
simultane
jez
password
shuts
confessed
##aha
airborne
colson
signatures
significance
humility
shooter
stevie
delac
starck
stargher
##ussion
##nec
##neil
deter
##oko
powered
collateral
admissions
riders
ridden
snack
retards
salieri
##uces
straps
fulla
grandson
##ippy
petition
petals
array
##liner
filing
majors
subl
substitute
suburb
hangs
senseless
racial
proph
richer
annih
muscles
statements
extrad
profound
classical
##otech
visits
ballroom
ballplay
radius
erased
owww
adds
addiction
addicted
foolin
keitel
psyched
squash
shallow
markers
popped
merit
walters
condoms
condesc
imagin
##coon
pastor
privy
repay
reply
counse
##ocity
costumes
##gann
##ounce
machinery
stepmother
musicians
judd
##brand
##bruary
viruses
virgil
pressures
bases
investors
valerie
february
cryin
demille
involves
blueprints
stricken
shorts
##govern
michaels
irony
solved
solitary
strongest
bribed
jung
slowed
garland
toughest
cabins
cabbie
bustin
advances
ticking
denial
denham
dennings
motives
baths
jumps
sanderson
witwer
brainerd
cashier
ella
ellis
detected
layout
formula
jameson
commune
deviant
thirds
doubted
escobar
alexand
occasions
screws
duncan
allowance
efficient
efficiency
verify
vermont
germs
geronimo
fishy
posted
postcard
limping
limbs
limousine
accounted
churchill
splitting
macneil
hyper
castles
presented
estates
amazes
equally
hideous
prepost
angela
##ructor
louisiana
kara
failing
masc
hooks
nosey
gasoline
##guer
bandages
julius
summers
draws
correctly
holoca
##bbing
mcgann
raining
rainbow
dependable
gifted
expend
expelled
difficulties
talia
lambs
##ronic
rubbed
rivers
intruding
hostility
males
griff
arrival
##minate
berth
bermuda
technician
##affrey
pretends
generator
generosity
projection
lindsey
raping
pools
pathological
banned
gordo
scottish
suspend
##eteria
ratan
galbra
angles
hawkeye
freaky
mccaffrey
hamlet
furthermore
tours
freshman
bondage
gaming
gallant
sporting
mailbox
sinned
remaining
pocketbook
toothbrush
assignments
gayle
scripts
execute
quoting
cartel
butterfield
##ermo
ledge
poww
magnum
strangle
shifted
unlucky
rhode
concentrating
cultural
variable
variety
improv
mathilda
##nnn
dumber
cancelled
jonas
unsolved
gains
competent
panty
officials
betrayal
implications
montgom
webber
acquis
mulv
foreigners
sophia
attempts
hayworth
rescued
ducks
ooooo
##arajah
hudsucker
spooks
pizzas
fruitcake
applic
naomi
revenue
chewed
educated
flashlight
lipnik
candid
cavity
reviews
responding
produces
constantinople
pedro
pounding
franch
oaks
savior
divide
occupy
challenged
##ooooo
scenery
miguel
whatsamatter
cloaked
drums
mantini
hauling
prevented
declaration
methodology
semi
semple
bolts
premium
distracting
biological
corey
jenkins
nikki
pentangeli
peanuts
privileged
casualty
documentary
territories
tutor
items
bidding
luci
fluid
obligation
dillinger
octopus
beliefs
genuinely
gravitational
23rd
isolation
shouting
frequent
007
nominated
neurotic
plotting
strawberry
prosecute
cinderella
egon
opium
tatiana
restraining
soviets
tsch
praise
exaggerate
swede
exploit
republic
confirmation
weighs
gorilla
whitney
possessive
certificates
fiddle
parrot
landlady
external
lemonade
accepting
smuggling
regional
maharajah
improvement
carnival
crafts
merchant
merchand
dolphins
miniature
correspondent
dartmouth
elders
gazzo
luxury
unemployment
simpler
anticipate
overwhelming
tumor
daryl
daryll
shangh
slayers
mathematics
tahoe
enlighten
sculpture
tomatoes
oblige
mayhem
resemblance
cavalry
bahamas
renault
zombie
sausage
enlisted
drooling
emptied
figgered
saddam
galaxy
hypocr
challenging
bicentennial
tidy
repressed
nevada
emerald
resurrection
metropolis
inheritance
biblical
gilbert
krem
comedian
grandchildren
misdem
cinema
fetish
jinx
##horvich
whittlesley
anatomy
abstract
intuition
apprentice
redneck
cafeteria
enthusiastic
bodega
vapor
yogurt
nekhorvich
teasdale
infirmary
postpone
macleod
archdiocese
hinkel
mirtha
mordechai
venezuel
beetle
beggars
##anthrop
harmsway
preoccupied
questionnaire
consuelo
registration
juvenile
balboa
bellerophon
injustice
##ukkah
kobayashi
extraterrestrial
beryllium
cincinnati
dreyfuss
klaatu
kafka
nymph
snyder
##holland
orgasm
mayonnaise
nevertheless
pepsi
ungrateful
undoubtedly
disbarred
recollect
farragut
geneva
obnoxious
holocaust
galbraith
montgomery
57
54
79
7th
81
900
az
aston
aches
batch
bord
bending
ci
cb
cone
cess
cain
cel
cuss
cages
cement
dunk
dense
ez
eee
elly
eaves
fitting
ga
gap
gild
gower
gork
gaw
hir
hul
hips
huckle
ib
ick
jest
jup
jeth
jugg
ki
kab
kint
kens
lh
lur
leel
lath
lured
lonel
luh
lanes
ming
mos
mates
mute
mumbo
moust
ness
nour
niet
nyl
ping
pta
pank
pater
pors
pablo
rites
rushing
sz
tes
tad
tess
tul
tep
tents
tipping
tiring
uc
uk
vous
vert
void
wop
wain
wann
wager
wishing
wolves
yoke
yarn
zur
zach
zimmer
zaius
##mie
##made
##mute
##mobile
##pea
##pie
##pey
##near
##nier
##nne
##nuts
##uity
##upt
##ujah
##roy
##eon
##eers
##lic
##cill
##call
##cend
##cers
##crow
##horn
##haven
##iated
##gence
##gled
##dock
##dream
##driver
##bies
##bach
##jesus
thx
##oux
youse
##aters
##onious
##anny
token
wham
whoops
anom
ansel
anastas
##eder
##arians
##isure
##isms
##eted
##etry
##itis
##itating
##omon
##ask
ine
inoper
hep
heist
anderton
rect
rept
reef
bees
bebe
beamed
weiss
weeds
havent
doomed
dobis
##idated
##sta
##sten
##stri
##stated
##ghead
onboard
##lda
##ldom
gozer
shiv
shaken
shipped
shattered
##kell
##sea
##aler
forge
forum
forming
donkey
knack
knicks
sta
stans
stated
stove
stages
stagger
lipp
liability
##chen
##chron
notch
noc
noct
nood
noel
noses
nobles
##anter
##entin
##entive
##eek
canv
canned
nept
nelson
soy
socially
soaked
getty
allan
justify
shemp
chal
chant
chey
chub
chlo
chipped
choos
chaser
chorus
pron
pruss
thinker
upright
upstate
##icides
##raved
##rault
##rained
worthing
##una
dement
deuce
decker
dejesus
frat
##acked
seeya
##oreen
sau
managing
loot
loft
plut
plun
timers
##ulum
sears
couldnt
##ifix
##ifiable
guided
exquis
hiss
arb
arbit
armani
compress
compton
##astly
willa
willard
##obia
##aka
##nais
##nace
spat
spur
spilled
spilling
brow
brent
broth
brides
brute
##ittance
twas
twig
tweak
hadda
haddon
##icker
carmine
ames
amar
amish
amado
amigo
##ouss
troy
truce
troph
trooper
agony
agenda
clive
clap
cluster
clinton
callow
leisure
enlar
##oughs
##orted
pep
peg
pegged
quell
quentin
droid
drastic
##emore
##ements
unite
unident
unhe
unrel
blas
blender
muh
mund
##elity
##elujah
marc
marzz
marcie
intoler
buggy
coins
##agl
scur
scots
scroll
scales
scorp
wont
hub
hubert
daydream
##few
##feld
underdog
wrench
joints
waal
waist
siren
afterlife
plea
lifeform
leaking
leaked
elm
elit
thrilling
advis
swings
swallows
partially
hipp
hippie
placement
perk
perch
perkins
perception
perrault
monro
missoula
understandable
playwright
##ogue
##ordi
phasers
##athon
runaway
disk
disallow
dislike
##quer
##iffer
crappy
trav
travers
##manus
headin
lav
lacer
##proof
stressed
strader
strasser
parallel
insol
insub
slur
slag
slipp
slides
sluts
sledge
recip
contaminated
meetin
diap
diving
divisions
warne
warmed
##ormed
sonuv
cheque
cheesy
##roix
glum
readin
readout
businesses
livelihood
finnegan
cleans
##ggered
harlem
triangle
pref
invade
menu
tenor
schoolboy
survey
dripping
pajamas
barbie
endure
endorse
holder
sounder
edwards
metall
rests
##lington
excl
decoy
booking
monthly
hurtin
##eeth
evolve
copied
##ibu
##ibur
##ibble
skies
skins
eighties
seth
grable
infamous
simulator
##azza
jeans
##erto
trustworthy
##ivate
dreamt
exploded
syna
##onto
consig
consol
console
consume
consarn
geography
geographic
geordi
delic
delta
delaney
instructor
firefly
fireworks
sorted
importantly
buyer
certainty
##ologically
admittance
rider
snip
salmon
burying
burbage
burrit
sentry
sentences
patty
arranging
curfew
singular
millionaires
##apeut
filmm
filiba
sami
wearin
driveway
hangover
builds
presidents
uncon
uncont
uncomm
props
ladyship
studs
reflection
extensive
worthwhile
gladiator
visions
visited
impound
meds
transf
smallville
trainer
seller
laurel
specialist
favorites
felicia
darkest
marking
throwin
condo
operative
##cox
flyin
flynne
##oculars
disappointing
costa
penance
penfield
pleasures
fixes
##zzi
posit
laughin
rosemary
baggage
palermo
apartments
mischief
valium
fees
strangely
smelling
largest
striker
mentioning
birdson
packard
packages
##going
boris
solomon
suitable
juneb
damages
norweg
sherwood
sheronda
denby
bathe
##uffy
crossroad
weirdest
cashed
arrests
lays
catalog
cardboard
communicating
daft
appreciated
##iliary
bleeds
vanilla
sadly
sadie
occurs
silicon
violating
halle
hallelujah
lads
laddie
oppress
moderation
sanity
macready
macaul
casting
##inois
aviation
##annon
frenchman
dumbass
furnace
louisa
louisville
royce
photon
masry
sailed
gaskell
bands
jules
sensor
sensit
sensual
constable
obsolete
washes
seafood
clarendon
blockbuster
speculate
mcgovern
mcmanus
ghastly
frightens
missionary
examining
portable
sleaze
leeches
juicy
intrusion
collector
malign
malibu
melod
melted
gripe
janine
therapeut
cracker
cracking
crackpot
supports
mmmmm
dancin
berries
matched
randal
lynd
licensed
lasers
roughly
successfully
stanzi
puzz
paths
chickenshit
ramos
##ophren
banquet
ignition
lifts
booby
kayleigh
venus
voltage
##heads
characteristics
cyl
cyril
mccall
ryuji
rumour
swords
describing
borrowing
hillb
domination
releases
severance
moody
sneakin
revol
kris
remained
corned
reactions
immense
immature
bums
poisoning
poisonous
189
chopping
funded
punishing
unharmed
bedrooms
emotionally
20th
butterflies
blankets
ott
snappy
bulletin
targets
lisbon
illegally
miraculous
mortals
pinkerton
shielding
stinky
peek
concentrated
cultures
falcon
impro
imprison
fingert
mathieu
chateau
claymore
denton
dumpl
debut
lectures
tuesdays
tails
tailor
unsub
tabl
amounts
antiques
railway
beauhar
ferry
implied
wyoming
twisting
sophom
paden
wintermute
bounced
cheeseburgers
novelty
regardless
kimmy
critics
applications
automobile
osgood
annex
replacing
grayson
cooperating
pitching
pitched
qualify
recommendations
blasted
cruiser
joshua
##blers
picass
##weil
clinical
temporarily
deduct
dedication
passports
hacking
kinnear
whistles
hammond
savages
assassins
occupation
watson
##oooooooo
hanukkah
aggrav
fortunes
networks
wadda
sewer
poems
deemed
niki
scraps
grasshop
analyt
ozone
razinin
##itarian
##strong
warsaw
democracy
alfredo
cowardly
bogus
humpback
hatchet
beeper
cocksuck
gabrielle
criticism
yuppie
neutron
vegetables
scams
imperfect
recruit
injected
decorated
detonate
pupil
episodes
kurtzweil
egghead
exploring
auditioning
telegrams
dugan
defeated
breeding
munro
yankees
##putin
unreason
groceries
synchron
republicans
dictate
heavier
sequence
traumat
gynec
whitman
stirred
liverpool
blackmailing
gabriela
dubious
faintest
skirts
electronics
mushroom
compensate
flooded
consumed
750
bruno
lazar
commodity
translate
merciful
mercury
perpetual
arab
inquiries
frustrated
gulls
arrogance
hysteria
baptized
fulfill
sankara
vibrations
putterer
hallucin
hallucinations
specimens
carniv
prettiest
demonstrate
aaaah
biscuit
ivan
abduct
aspirin
clicking
corpses
treasury
encouraging
accompan
initiative
binoculars
stairwell
grenades
remarks
crucifix
advertising
townsend
departure
cockroach
rhyth
rasp
rasputin
flavor
folded
drifter
evacuate
impersonal
transmitted
errands
hydrogen
precaution
hendricks
telesc
stimul
crazier
housewife
excessive
disconnected
destructive
continental
ecst
##hyd
wholesome
seminar
braslow
intriguing
comprehend
obscene
cyclops
stabilize
asteroid
ooze
theoretically
chooses
carriers
carriage
ordinarily
cappucc
wuddya
inexper
convertible
enhanced
schizophren
inferior
earthquakes
souven
hassle
geoffrey
deprived
optimistic
category
aubrey
dorsia
korean
tuxedo
anaesthetic
emmett
handcuffs
glamour
behaving
artificial
suffocating
mcgill
epidem
kurten
kittridge
udall
chastity
marvosa
discharge
propaganda
astronaut
reinforcements
authentic
incompetent
bergman
algeria
seizure
marseilles
incompl
liebkind
supermarket
cowgirls
hitchhik
stenographer
alligator
gunderson
cochrane
hunnert
database
skeptical
resourceful
auxiliary
cactus
ounces
sierra
alleged
chisel
spacesh
clumsy
muhammad
grampa
monopoly
morlocks
bollocks
focused
excalibur
simultaneously
delacroix
suburban
ballplayer
preposterous
powwow
shanghai
hypocrite
misdemeanor
eavesdrop
gilded
gorkon
huckleberry
kensington
leeloo
wainwright
wannab
anastasia
dobisch
lippman
chloe
exquisite
haddonfield
unidentified
marzzone
monroe
disallowed
slippery
junebug
crossroads
macaulay
beauharnais
cappuccino
43
59
56
76
84
9th
ai
ave
ail
bach
bav
bash
bied
bows
baff
bomber
cp
ching
cic
cull
cates
cens
cuc
cider
crick
crib
ciera
dm
dj
dic
dus
dang
doth
dimin
dye
delly
diction
dazz
doreen
eu
ech
eel
elder
fou
ful
fey
fists
fury
fender
fences
fainted
gul
gav
gents
gender
gaze
hens
holog
hittin
hilton
housing
ire
jr
jorge
jorg
kook
kul
kos
kai
kung
kenn
kamins
kiki
ls
lan
latch
louse
lull
lash
lins
liner
lomp
mh
mb
moo
mab
mose
nip
norr
nug
nintend
nilsen
og
ore
ome
pak
pact
pav
poof
pester
pending
pomp
ration
rue
rents
rhin
roul
rik
races
sith
sly
sart
sate
sans
sigh
sized
tine
tac
tai
titty
vat
vult
voil
vivid
voted
ww
wink
wuss
wages
wimp
winton
yen
yikes
zu
zh
zer
zin
zow
zap
zebra
zorro
##tore
##oats
##mott
##mama
##maker
##pil
##puss
##pired
##aved
##nut
##normal
##uder
##sch
##rer
##rates
##rists
##rusted
##zia
##zens
##lier
##cre
##cine
##han
##hall
##hist
##hol
##iour
##iences
##ienced
##gi
##gado
##vere
##vation
##fell
##fits
##flow
##but
##bus
##bos
##bab
##bear
##bbe
##yman
##yards
##22
##wit
##15
##jay
##jour
##jac
thal
thai
threes
##oure
youve
##inum
##inty
##inals
##onal
##onder
##onium
##onzo
toad
toont
##ingly
##ingham
##lli
whim
whop
whiff
##oria
##orient
##enas
ante
itís
##arin
##etting
##etrack
##itness
##aska
##real
##recy
inb
inad
inning
inez
inhib
inquire
##uting
##ayette
hex
heid
heating
reap
reese
rewind
whatnot
beery
beyn
beads
weaken
mellow
megan
mebbe
hap
hab
doom
dove
dogg
dozens
##stak
##stead
ons
goble
goals
goering
gosp
shm
shud
shush
shitting
##keby
##alysis
##ima
##imated
donor
donation
donuts
kneel
lionel
##chs
##chi
##chon
noted
noticing
wastin
waski
##advant
myr
nos
nov
##ithm
##amine
##ented
##enteeth
##eee
##illo
##urf
##urai
##alled
##allister
##outing
necks
nebr
##ional
soak
socc
abra
abilities
allie
outr
outwe
outburst
shepher
chu
chink
chel
chile
chipp
chino
chipper
howl
prol
prair
prying
upriver
athe
##icies
##icators
##icuddy
##andi
veil
##rave
##estro
##uns
##unes
depl
degr
deja
fren
frantic
herald
heresy
whyn
alot
alison
##ilate
##ilian
##usal
##usive
saig
mann
mank
manages
manray
manhood
managers
lobe
loony
logging
usin
pliss
pliers
plastics
##igible
goodies
timid
##ulet
semen
sections
seldom
##osse
##ifact
##ifred
exert
##olism
arbor
arlington
comics
comments
##vene
##venworth
comeback
backst
meaner
splin
spades
spears
talker
bris
brod
brake
##icking
carc
carib
amp
tron
trot
trent
trough
trub
truc
trumbo
clips
leer
lever
leeds
leverage
envelop
enroll
##ected
overst
overall
overly
overest
overth
overflow
peed
quid
quittin
drilling
##emont
##oya
moor
unin
unle
unim
unner
unpar
bloss
bloke
blames
blushing
mugged
##elin
##elines
##bergs
marlowe
marathon
intruder
buick
coz
cov
coal
cokes
##agra
scab
scagn
scanners
##ffle
hudd
hullo
evenings
##urek
grin
grunt
grudge
greta
nighting
nightfall
nightcap
rogue
newport
joad
jolly
helpmann
longing
longfell
##acher
rembrand
##dermott
poetic
leavenworth
##assed
elton
elster
throats
probie
crest
crates
croup
cruz
crumble
cougar
ade
adoles
adapt
adolph
swap
swarth
partly
mait
maestro
##ossal
miniat
hier
hijack
homeboy
uhn
lotion
peru
perj
monaster
monitors
acute
##urnal
badges
fling
flown
faw
##into
handsh
careers
##ogast
##ogical
##ordination
##atha
secrecy
hearse
disorient
disadvant
##qual
mighta
traitors
minding
morbid
##eye
seraf
lacr
##pring
stray
camelot
schae
schneider
momo
paralysis
pretended
tonic
insin
insens
prover
prostit
bozo
worldwide
slop
slime
recy
hardcore
contem
contro
contamination
warming
warrants
commend
committing
sonar
##uba
funky
cheery
##roc
sixpack
policies
gloss
finland
harri
trials
foundations
payoff
composed
##isters
invoke
##avo
capone
tens
tenant
jacked
jackass
jackets
jackpot
stuffing
farming
pais
cutter
endings
shostak
wonderland
picket
presently
fifteenth
countess
countdown
decipher
breakin
checkbook
darien
prompt
lawford
evasion
##ibal
billi
billing
skiff
skyn
hitman
millimeter
millaney
honors
specially
numb
awe
awaken
obi
questionable
##ugal
jeh
passive
##aho
##ahad
colour
heartless
##ivated
syrup
indication
indisc
considers
delir
delbert
delhi
delgado
factors
dinners
perfor
honeythorn
incest
inciner
benes
benson
depinto
discred
watering
watermel
buyin
##apper
##ups
collapsed
forgery
sneeze
snooping
salute
salzburg
##ucon
robins
defended
burgers
regards
regulation
grandmama
artifact
petting
touchdown
esk
esper
suspens
conclusive
concussion
concannon
singh
singles
legacy
filters
samurai
draggin
##ushova
##soe
magnes
hangin
uncles
cleaners
saturn
midst
greenteeth
clearer
clearance
refill
refres
profanity
visas
straightening
impot
impost
impulsive
ballast
ballistics
##owski
transp
transcript
transsexual
smallest
##tenfuss
buckley
colds
##riced
frontier
keating
centers
felon
squeak
losin
nickie
##rament
popping
merk
merci
mercut
merrill
typing
wales
##coats
fairlane
caves
locking
repet
repell
reprie
repulsive
superiors
affl
dougl
disappro
##fortune
##zza
##zzie
judged
judges
##bral
##brook
considerable
casket
casinos
treaties
misfortune
presses
burnfield
valued
stickin
feat
clocks
demise
illumin
illinois
lords
##efur
lara
stripe
stripped
stripper
solitude
drunker
hopper
practices
garlic
rockwell
eyeballs
boatman
publicly
sandefur
toronto
layer
##bedded
formality
armies
catast
cardinals
communic
lowry
digg
digit
camps
camping
greenhouse
fatig
niner
belonging
rollo
fishin
prodig
produced
acceptable
sanitation
directive
##cutt
macdonald
investigated
empath
southwest
healy
suggs
equation
settling
##ueless
deliveries
wildlife
fails
sails
sailors
##gued
antig
sensed
labs
fitness
holmes
claremont
blockade
mcdonald
mcallister
mcdermott
ghoul
vaccine
sharper
pinot
pinback
pinched
talents
franco
martinis
renting
##fucka
baton
batty
batting
slew
fellowship
panama
hostess
collective
malt
malaria
melissa
criminally
sarris
crackers
oddly
objections
bala
creeper
archive
archae
cocked
cockpit
bodily
bodhi
cooped
agreements
assistants
generated
bellev
projections
flights
lucille
tita
scarf
puerto
stocks
ugarte
emergencies
rams
motherfucking
satisfying
preference
olives
##etera
boobs
scarecrow
switches
galahad
angora
hawthorne
provides
freakin
cyrus
mccay
attorneys
ethi
bonding
domain
josé
wilkins
wilshire
accessed
jealousy
fanucci
gallon
galley
gallons
sneaked
salesmen
fridays
sociopath
sinatra
snowball
storms
immoral
immunity
diseases
kirkeby
pairs
corrob
buffet
matin
mutilated
approaches
expressing
punct
punters
##gaard
appointments
mentor
lifeline
cartwright
witchcraft
punching
chapin
chapel
chaperone
logically
behaviour
psychiatrists
silverware
naples
crowds
floris
funerals
fiber
pumped
strangled
junkies
rhym
pillar
primer
traded
surfing
typically
rushed
safest
spelling
hypn
120
whorehouse
ronny
canceling
entertained
unsure
lesion
mileage
internship
deckard
cherish
epile
scratching
scratched
embrace
priorities
circumstance
mulholland
deceit
deceive
foreigner
bangs
diesel
mackey
haydn
paddle
despicable
oooo
ooooh
pours
liberal
reservoir
advantages
disgusted
whacking
stretched
inventory
kimball
pizzer
bailed
oskar
replicators
dipshit
chinaman
qualifications
flashes
rancho
avenge
ribs
tagged
librarian
predator
predicted
pursued
deacon
eti
ettore
kuato
vitamins
cruising
ragged
conceived
concealed
philosopher
falsely
deranged
pedal
peddle
pacif
virtucon
initial
beasts
temporal
gathered
tassel
wickwire
##namon
surgeons
buddha
tends
tendency
hacked
sacrifices
21st
cerebral
hesitation
sacrament
clifford
scanning
scanner
palmdale
miggs
##liere
steaks
nobleman
drumlin
intentionally
bumps
adjusting
adjusted
puffy
remarkably
actresses
aiding
dyke
rudolf
wadn
paradox
premier
patrizia
jennie
nikes
nikko
rebell
scrawny
privileges
chamberlain
spectrum
##strom
sparks
sparrin
booty
bootle
bidder
platoon
platinum
resigned
increasing
concerts
1967
wiser
coordinate
5000
greeting
hitched
multi
nuwanda
georgina
criticize
vegetarian
consequence
imperative
dismant
syndicate
essence
wraps
shouted
tonsils
greeks
lonnie
nomak
unaware
gramm
colonies
prosecutor
vicinity
mythology
restraint
skelet
skeleton
##omaniac
helmuth
relatively
dalton
muncie
tsavo
measly
guinan
sweden
shoveling
exploitation
econom
wandered
##escu
altar
corpus
penguins
administrator
egyptian
gorman
rearr
manifested
severely
vaughn
toxin
mocking
interfering
sketchy
sketches
retrieve
puppeteer
molest
compensation
compensated
strategic
slammed
consumer
bondsman
durden
ingenious
worships
inspiring
brewery
cursing
diplomatic
arabs
lenin
lenore
vouched
frustration
carrot
carrots
infantry
expanding
assassinated
baptist
fulfilled
guilder
amateurs
stubbins
sleepless
neutralized
rituals
kraut
kelson
kelvin
##girl
inhab
weeping
diagnosis
harassment
metaphor
metaphors
leadership
purchases
penetration
penetrate
immortality
tattooed
dismissed
achievement
hindus
linen
sodium
ensure
polymer
cramps
boiler
treasures
romulans
specifics
initiate
spectacle
navigation
elden
rooft
##court
staircase
sultenfuss
overheated
##ffeur
coupon
advertis
transmitter
dispatches
aaah
cinnamon
tumble
evaluation
evaluate
consultant
transmissions
electrocuted
acknowled
manufacture
cortex
jaguar
burgund
verdict
rehabil
penitentiary
rashid
tahiti
yakushova
styles
demolition
negligent
negligence
exceeded
thighs
diversion
calculate
contradiction
motivation
wudan
velocity
tropical
hoffy
supplied
earthquake
cauld
lagoon
loathe
spacedock
scoundrel
scoundrels
accusation
accusations
transporter
transporters
tyrone
bimbo
bikini
rasczak
spontaneous
mayflower
paramount
graphic
obsessive
repeatedly
microch
insecure
cotter
nipples
##chmacher
overpriced
johana
swiped
disneyland
glands
prevail
transplant
neglected
electrician
observer
variables
unrealistic
microscopic
dahl
dyslex
siberia
aspects
groovy
emphasis
phenomen
lafayette
reflexes
degenerate
bayonet
enclosed
mckinley
omelette
battalion
masturbation
bryant
bakery
dottie
fleming
ketchup
russell
deleg
bridges
newsweek
parachute
infatuation
purgatory
excelsior
argentina
pyramid
bolshevik
oeuvres
flexible
igor
forsaken
chauffeur
somerset
underpants
eminence
hoagie
chevalier
triplette
eyewitness
mascara
expendable
improvise
franchise
venezuela
jupiter
jethro
lhasa
loneliness
mosqu
moustache
porsche
szpil
teschmacher
inoperative
neptune
cheyenne
choosing
worthington
arbogast
calloway
blasphem
prefers
synag
consigliere
uncommon
sensitivity
therapeutic
unreasonable
traumatized
rhythm
telescope
mcgillicuddy
incomplete
spaceship
ireland
jorgensen
kulok
kaminski
lompoc
nintendo
omega
zowie
toontown
heidi
nebraska
soccer
outweigh
prairie
saigon
plissken
caribbean
scagnetti
longfellow
rembrandt
miniatur
monastery
serafine
insensitive
shostakovich
skynet
suspension
magnesium
mercutio
douglas
bellevue
rhymes
szpilman
68
66
71
74
8th
95
ald
aver
ary
aus
apt
aint
alder
bere
bau
bick
braid
bork
bung
binary
baza
cc
cds
dome
dia
dames
dup
della
density
ether
eich
ester
ehh
ebby
fay
fives
fumes
fowl
gad
gator
geller
hh
hoth
hoof
hints
haste
jp
jor
jee
jive
jug
jello
jumper
jurek
kg
kam
kittle
kool
kamp
kaz
katherine
kettle
koko
litt
lother
lub
latt
lyle
lana
luv
mook
mish
mash
mio
merv
makers
nes
nast
nada
nifty
ora
pd
pess
pau
pont
pows
punt
poul
porth
pots
puls
rou
rall
ruck
rach
rav
rating
ringer
rache
rican
roust
sg
sill
tion
tic
tame
titt
tuts
tippi
vu
vort
voss
via
vial
vox
voting
vlad
wu
wong
wider
xan
yi
yay
yur
yllo
yanks
zed
zander
zimm
zalt
zulu
##oi
##mies
##pan
##pay
##pic
##pike
##aan
##aith
##aci
##azy
##acious
##net
##nna
##nation
##ught
##sons
##singer
##zio
##zai
##lac
##lett
##cas
##ccept
##cular
##cases
##hl
##hot
##hart
##hof
##iak
##iago
##iques
##gf
##gam
##gang
##gley
##gale
##vial
##dad
##dick
##del
##dish
##fi
##fun
##full
##fold
##felt
##bre
##bust
##boo
##bish
##bble
##bah
##bilt
##bishop
##banks
##kis
##kick
##wun
##witt
##wick
##weal
##western
##wurst
##16
##jor
##jee
thaw
##eroy
##inis
##inform
##inburgh
##ono
##onents
##onne
##anim
##analy
toons
##lll
whoop
whining
whippin
##orf
##orin
##oration
##orhe
##orius
##eny
##enous
##esher
anus
anita
##arations
##isl
##itus
##itud
##itives
##ompress
##omination
##asive
##asco
##reides
inau
inade
inquis
##ayin
##ayas
hein
hewitt
andr
andre
##ereign
reagan
mein
hale
haze
hailing
dole
dost
doork
doss
##lector
##iddy
##stop
##sticks
onion
onna
ish
isla
goo
shi
shes
shill
shri
shook
shines
shaked
##imited
dong
stard
stear
stip
stint
stared
stained
liars
liby
lili
notor
##ceivable
wast
noose
nosy
##ustomed
##irable
##amm
##amie
##among
##amish
cane
canoe
withstand
##urg
##alling
##outhing
sob
solem
abol
abide
abnormal
getaway
allright
allah
##tered
##odel
outright
outcast
output
##rils
asc
asgaard
##ndown
##each
chas
chir
chol
chills
chlor
chimp
chaste
choking
hows
sula
suez
prud
primate
##opol
upl
upgr
upham
uphold
atone
atreides
##icism
##icrous
##andra
##ppas
##pple
##rapin
##estion
deanna
deird
frater
fritz
frogs
herm
hersh
alf
alias
alonzo
##usible
##uscript
##arten
sauc
saks
sabb
manure
manfred
manuscript
orton
orgy
##geon
lolly
logged
uss
platter
##iger
##igma
##istical
ohhhh
##ucking
##ulses
##ulnerable
seize
seals
seism
semit
seeds
##oslov
##ifting
guine
guides
export
arent
arlet
artery
arithm
##atement
comical
##astically
##ende
##endrick
##abor
willy
backtrack
meanest
##aki
##akia
spud
spitting
spills
conan
converted
talkie
brus
brouss
everytime
mayol
carat
##oused
trout
##apy
aging
agencies
agatha
cler
clam
clob
clash
clover
clueless
leans
fuckhead
enfor
workout
needles
overwork
overrated
overpower
pem
peas
quill
quits
unatt
blues
##bering
marm
marl
marily
marcel
marguer
intra
intensity
bugged
cog
coon
scatter
wonders
##ffer
hugging
undet
evenin
yearbook
##ishes
giveaway
grouch
gretch
grimes
rog
rok
rolex
roaming
longsh
imped
sirens
beforehand
pleaded
remov
poach
polly
poached
poked
##tail
##irez
eli
elite
throb
##udel
probable
cram
crises
crashing
##izers
adap
parting
smurf
##pto
##ptuous
mao
mae
maim
boycott
minnea
hiking
realm
realization
realizing
perce
perrier
understatement
monte
monarch
flux
flashing
flask
facial
listens
handker
handbook
##oga
##ogy
##ogan
philly
phara
phoning
runners
buss
busboy
disl
disability
wouldnt
craps
crapper
crazed
trapper
motherhood
tomm
##mans
##mances
morally
morons
morrow
##eyed
headline
lacy
##sha
strudel
interru
resolution
resulting
resounding
camels
parks
paramed
parlay
parais
insul
insured
inscription
prohib
saws
sawyer
##acle
##acola
leftovers
slate
slump
slush
slips
slinky
sloppy
weekly
recre
charitable
appra
##ignon
diab
diana
mattered
commiss
sonris
funk
funboy
cheats
##plement
turnpike
brean
sixteenth
glow
glau
glare
##mmy
lively
watcha
watchman
accents
accustomed
telem
walkie
harmed
harlan
harcourt
ahem
tripped
tripping
trivial
payne
terrace
premed
composition
invaded
invulnerable
##avier
capri
farley
pappas
barons
barric
barging
barrington
barbat
holden
shoves
wonderfully
giul
giov
edith
editing
edinburgh
pickle
metab
preserved
openers
sleepin
restroom
thirteenth
thirtieth
pricks
prizes
countless
standby
decompress
apache
hott
booker
bookkeeper
breakthr
figur
daring
darwin
untie
evans
relat
relate
billings
skipping
skippy
skrapin
mills
youngsters
eights
bedford
bedbugs
genre
graf
graft
gracie
awa
obit
infinity
simms
##azar
earp
earring
jezzie
shutters
confide
confisc
colossal
##ertation
##erties
##retta
##iviere
lighting
explodes
explicit
syl
syll
index
humph
humming
shooters
steamed
geomet
geologists
starvin
starbuck
corvis
captains
detach
detention
expectin
incur
incons
incoming
bensinger
firehouse
discon
newsstand
##ouche
followers
watered
lieu
##uctive
messin
snif
retro
saliva
salazar
robe
robot
defy
defence
deficiency
deformed
calib
sentenced
fuller
regen
registry
grande
grandad
eyesight
pets
petro
arrows
murdering
espress
winding
windthorne
curl
curric
painless
concorde
wines
winners
winifred
alongside
legisl
##lination
redeem
uncover
louella
raided
propri
properties
richter
midwest
refuel
refinery
refusal
extended
distinction
visible
imposing
impeach
impulses
balled
balloons
transpar
trainee
destined
buckle
bankroll
landy
##ricide
##ricular
erad
sellers
oww
botherin
centre
entrap
squaw
squares
##ramatic
darker
fastball
markets
accidently
poppy
tyrell
tybal
fremont
operated
viking
fairbanks
humanly
cavern
caiman
maxim
councill
mouthed
topside
superc
superv
superf
superb
supervis
kisser
doubles
doubled
danvers
##undant
covert
personalities
##zzik
generals
floats
palantine
protects
casa
casy
##essional
miscar
misinter
honora
smarts
sticky
courteous
telepr
fezzik
conniving
##versial
growin
lariviere
chickened
shorthand
##mingham
irving
irreg
irwin
lunches
luncheon
solving
suites
bricks
hopin
##iko
damien
rocker
rockin
cables
destroys
turd
turks
tickle
motors
motels
birthright
acrob
letterman
##boats
armstrong
cataly
cardiff
dai
daik
lowe
icebergs
boxing
doubtful
##enched
##iliation
sadistic
digs
screwball
greenwich
greenhill
viola
dunn
dunois
boardwalk
geeks
vera
tempting
belongings
rollin
posts
modem
modified
acceptance
macy
macaron
hyst
hyman
hype
hyde
hydra
congreg
continually
tasting
casts
suckin
philanthrop
esteem
calmly
particulars
gardens
cowan
cowards
settles
##bius
quarre
electra
masbath
marries
bowel
antib
physicians
miriam
sensory
laboure
drawers
recognizes
pushes
divorces
seaweed
boyfriends
yellin
##bbs
clara
auditor
auditions
audiences
henri
comforting
codex
admirable
credits
credential
tighter
sharpen
expire
pinpoint
tapest
moonan
rental
lamont
loosely
looseleaf
rubbing
rubbish
sleazy
traveler
existing
northwest
taxpay
conditioner
malicious
browns
browning
melanch
grier
janey
janiro
organizations
mmmmmmm
swimmin
dancers
objects
objective
##ofessional
civilizations
berry
arche
randolph
authorize
assisting
generations
professors
mixture
licence
licenses
customary
titles
stanford
scarce
risked
niggas
rapes
rapids
clientele
speeding
speedometer
santiago
##lete
bradley
braddock
originals
poolroom
##iatric
ramada
branding
satisfactory
urg
urges
urban
banister
banzai
ratso
commonweal
rosie
combinations
venza
volga
volumes
provo
providing
fema
sundays
bono
bonjour
hillside
raban
regularly
gamma
wilbur
britons
gallows
developments
whispers
planting
plantation
quarterback
creams
bummed
diseased
socialist
engineers
engineered
msayin
buffoon
celebrated
mutt
mutants
scripture
quotes
janeiro
maple
sexuality
carton
cartoons
buttercup
chaplin
carpath
jabba
albatr
silverstone
rodgers
blondes
florence
magnet
periods
pinky
unlimited
rhian
rhodes
unfaith
processing
trunks
dispute
disposition
pillows
pilletti
whadaya
injunction
eleventh
variet
variation
confirming
hypers
latent
briefs
briefed
stability
choco
loaned
##oxide
shhhhhh
unsc
unsatisf
coastal
coastguard
wolfgang
underworld
lorraine
implore
montoya
barnard
experimenting
productive
scratches
boundary
wyant
acquire
insults
squadron
tempered
negotiator
influenced
congressional
hoops
psychoanaly
haywire
theaters
sweaty
asta
bouncy
fags
ooops
poured
shawn
shaved
##oscope
escapes
mumble
shelters
popularity
pornos
automated
osborne
versa
financially
preaching
terminator
conducting
katka
lobot
brooks
coincid
pursuing
dissent
dissertation
voorhe
contains
container
containing
explanations
##ohl
francesca
troubling
blasting
confessions
##cracker
conceited
responded
peddling
tentacles
achilles
wanda
initiation
habitat
courageous
settings
deduction
dedicate
rifles
##knife
exercising
marching
nedry
utmost
convene
farts
kilo
attendance
attendants
cereal
complimentary
pleasantville
hanover
envoy
railroads
individuals
laundrom
aiming
puffs
ranks
nesting
sewers
monitored
patriotic
distracted
bowlers
symbols
bulk
ilia
ruthless
rebutt
academic
editorial
announcing
profitable
limitations
cube
vicky
##draft
unprep
analyze
omigod
sparazza
enormously
glorified
##holders
pollution
obligations
telegraph
1969
16th
humpbacks
jahn
jaime
sovereign
paleont
deliberate
rawl
lambeau
nyu
nanny
octavius
legendary
fogg
wiping
yuk
essay
essentially
leonardo
injections
receptionist
werewolves
bluffing
decorator
disciple
disciples
dynamics
greece
naval
unaccept
sparkling
interrupted
memorable
memorize
achieved
siwash
sioux
rejection
myths
sumbitch
sprayed
sweeping
symptom
##iasm
applying
greyhound
diploma
tsk
wrestler
exploiting
drafted
observations
klingons
stalking
sequel
selected
selectman
granny
traumatic
gypsy
jayne
tolerance
sofie
guiding
carolina
inconceivable
bambi
dublin
lancelot
nitrate
nitrogen
##nowitz
orphans
plumbers
mocky
annoyed
##immel
exterior
extermin
queers
crowns
eduardo
unexpectedly
durin
ingenue
reassure
shapiro
brewer
mercen
multipl
perpetrator
cassius
nostrils
frustrating
##izzard
smugglers
baptism
caterer
catering
czechoslov
fulfilling
jawohl
##polis
swanney
feathers
sincerely
bunks
zeke
diagnosed
harassing
metaphas
brazilian
windsor
penetrated
erection
crunching
insights
indulge
indulgent
treasurer
accomplishments
volunteers
insects
constitutional
bouquet
tangled
vaguely
bruise
quantico
roasted
crucify
elementary
superheroes
anticipated
titanium
##aaaaaaaaaaaaaaaa
overwhelmed
kobo
satchel
tucked
##ravitch
emilio
presumed
presumptuous
evacuated
patronizing
memoirs
impersonating
brigade
patriotism
ludicrous
nudity
stimulate
overdue
insomn
indoors
verdell
hypothetical
mathematical
mildred
pulitzer
dooley
stylish
wholesaler
jeopardize
lizardo
compassionate
asteroids
coyotes
ostrich
pensacola
theoretical
allegations
allegiance
unprofessional
embezzle
morrissey
interpretation
calculations
extraction
contradict
motivated
cavalier
maneuvering
kryptonite
hazardous
ducts
mtv
pancakes
renaissance
vocal
vocab
##broken
##keeping
arsonist
kidneys
laxative
compartments
retainer
challenges
birdy
birmingham
cunningham
fertilizer
revelation
worshipped
trumpet
pharmac
prejudice
prejudiced
estimating
ambushed
hypnotized
fiancée
ruler
ruling
squeamish
plaque
plausible
offspring
mayflowers
newcomer
eloquent
crockett
parameters
muskie
absorb
synthetic
klein
valdes
vanderbilt
meadow
forensics
troopers
bloated
handicap
handicapped
dissect
trilithium
babysitter
snotty
bleeker
mcintire
mcintosh
grifter
grifters
sarcasm
videotap
videotape
fundamentally
tranquilizer
bixby
rimgale
riviera
stuttering
lovett
##iguration
moebius
disarmament
intervals
christsake
evidently
bullshitting
indigenous
belgian
marshmallow
ultimately
hemorrhaging
crocodile
accommodate
dandy
dulaney
duality
pixilated
wrigley
##zsche
chandler
quartet
blazing
adonis
hungarians
refugees
roadblock
bleachers
seagrave
mcgruder
massacre
obstetrical
embezzling
overreacting
bawling
ceti
patel
sizemore
xenia
yvonne
rewrite
sugai
bypass
scourge
cradle
serpent
stratford
recluse
obedience
sublime
prophet
extradition
##otechn
condescending
projectionist
applicant
kremlin
astonishing
icky
lathrop
nourishment
nietzsche
pankot
zurich
nocturnal
noodle
canvas
plunge
trophy
insubordination
sonuvabitch
burrito
transfusion
malignant
melodramatic
cylinder
hillbilly
improving
fingertips
sophomore
picasso
deductible
grasshoppers
cocksuckers
abducted
inexperienced
epidemic
eavesdropping
biederman
cpu
cucamong
cricket
dictionary
henslowe
kosher
mhravitch
mbwun
mabel
norrington
nugent
pakistan
roulette
sartorius
zuul
zinnowitz
beynon
abraham
shepherd
chelsea
trubshaw
trucoat
nightingale
croupier
handshake
lacrosse
schaefer
insinuating
proverb
prostitutes
controversial
paisley
performances
discredit
refreshing
impotent
transponder
reprieve
ethiopia
pizzeria
etiquette
sacramento
grammoo
advertisement
acknowledged
cauldron
blasphemy
aryan
oracle
pessim
porthos
rallies
sgt
zaltar
##itudes
inaug
doorknob
shakedown
stearns
deirdre
sabbath
arletta
arithmetic
broussard
overworked
marilyn
marguerite
gretchen
removal
minneapolis
handkerchief
pharaoh
interruption
paraiso
sonrisa
barbatus
giovann
skrapinov
espresso
curriculum
transparent
entrapment
tybalt
councillor
misinterpret
irregular
macaroni
hydraul
auditorium
credentials
commonwealth
albatross
unfaithful
voorhees
rebuttal
unprepared
cucamonga
0h
03
37
39
3rd
53
58
61
700
8a
89
96
agh
aide
aph
acker
ache
aquar
bil
bong
bac
bids
cul
cody
coney
cakes
cope
cnn
cici
cotta
dl
dorn
dern
dale
doming
dya
eiff
fain
fatt
faked
fenny
fades
fading
faded
fancies
gould
gert
gaps
gills
gingham
hasty
hedge
ight
iram
igu
iggy
ipo
jd
jad
jank
jib
jaws
jolt
kut
kell
kol
kins
kru
komm
krie
korda
lint
lakes
lars
laps
lenn
lending
lumber
lapsed
lutz
mes
mound
mord
muth
moul
mode
mik
mung
mitz
mashed
mouthing
nou
ner
nir
nab
nlf
nath
nero
nano
naming
oat
ove
ogg
ollie
pes
pse
pum
pough
pett
pager
piers
rin
rugs
sra
sade
sno
sne
satt
sss
ting
tir
tant
tate
tary
tamp
tainted
tumbling
uz
uri
vr
ved
vich
viny
vcr
vidal
vandal
watt
wards
wunder
witted
xavier
yor
yow
yar
yore
yum
yugos
zy
zere
zee
zipp
zones
zapped
zeus
zorg
zeph
##oise
##ozo
##mn
##mill
##mand
##mick
##miss
##matic
##moral
##migod
##morda
##pta
##pings
##ao
##nant
##num
##number
##uus
##uper
##uza
##uously
##rh
##ruck
##riss
##rude
##rational
##riment
##riman
##zh
##znick
##lest
##liness
##lair
##lits
##laughter
##lishing
##lasses
##cans
##cett
##cape
##cats
##comb
##cano
##corp
##hose
##hma
##hbert
##harm
##iates
##game
##gling
##gren
##gically
##groom
##guff
##van
##vol
##vine
##dam
##dly
##done
##dies
##dens
##dup
##dler
##fy
##fir
##fax
##furt
##bot
##bas
##bod
##bour
##birth
##beth
##bread
##bago
##build
##year
##kk
##kok
##konn
##íre
##70
##21
##wan
##with
##wig
##wife
##weds
##witty
##wait
##39
##just
##jorn
##jane
##jama
##58
##ón
tha
thad
thump
thug
##erit
##inet
##inch
##iners
##atus
##atile
##onin
##onov
##anide
##anza
tole
tock
toaster
##ingson
##llip
whar
whims
##ority
##enk
anto
##arz
##arcer
##areness
##isine
##etes
##otle
##itant
##itri
##rect
##repr
##regn
inmates
inigo
##veau
##uter
hectic
reop
reiss
reyn
rewards
bew
beak
meld
hag
hagen
dogged
dooms
doggy
dovey
doggie
##idy
##stant
##start
##strel
ongoing
isley
goon
gogh
goosed
gopher
goetz
golits
shal
shea
shuck
shamp
shrew
shiver
shreck
shrap
##aloo
forfe
##imitar
donowitz
knick
stings
stale
stature
staged
staked
stung
stipe
stunning
stokes
liv
lien
libert
libel
knowed
##chal
##chio
nother
notify
##aders
##adio
myri
nod
nobel
nova
##iration
##irting
##antis
##antics
##antha
##ente
##entious
##eemed
canal
withhold
##illin
##illas
##ooly
##ooey
buts
butth
neal
neander
theyre
##ione
sopr
abby
abys
abrams
abetting
getcha
didja
alliance
outbreak
outnumber
outdone
##inkled
##riers
##riage
##rigal
##heres
##nde
##eacher
sheer
chut
chig
chilly
chester
chigur
howling
howls
suing
sums
sully
prow
printing
pranks
prisons
##oping
##opes
##ophers
##ryption
anyroad
##icer
##icament
##ellar
##andez
##iem
vector
dex
deci
deport
dehyd
frisco
fringe
frisk
herring
alo
alp
alumin
alignment
##ilight
everest
##usov
saver
saud
##ivey
manch
manning
manny
manually
orn
ors
orth
orte
tellers
##geese
loew
loco
lollip
##ardin
##arded
##igation
##igure
##istible
##istrib
goody
goodwill
timothy
ohmigod
##ulary
##ulative
seated
segment
##osy
##osin
##osals
gummy
exile
##olas
##olving
##olite
##olences
arise
argo
comfy
fromber
##endo
##abag
wills
##ounded
backl
backdraft
##obi
##obes
##obic
##aky
##naw
lettin
spo
spree
sphin
speng
sparing
spleen
spivey
conj
conting
conned
conception
##ourin
##ourse
##umby
bran
bret
brood
brushing
brimmer
bronson
brumby
everythin
twit
twenny
twilight
hades
offed
offland
cary
carpe
amos
trend
trud
trillion
##otherapy
agn
clout
clich
clipp
clerg
clicks
clavius
lem
fucken
enters
happend
##ortions
##beard
##belie
##beats
overh
overjoy
downs
pew
pecker
pember
quas
quiz
moj
mooney
moaning
unqu
unions
uneth
unann
unru
unka
unmark
blum
blush
bytes
##acell
mull
muld
muley
##elaces
mara
maru
marr
marches
marjor
intake
intro
buding
buggin
##agus
##issen
##issors
scud
scimitar
scissors
huff
undis
unders
undies
hellhole
hellfire
underhill
wright
wrath
sorcer
sorority
grues
gritty
groves
grotes
roc
roam
roster
roeder
jokers
##actic
nothingness
helpin
##ipated
imf
imitation
imbal
findley
##achi
lifeboat
putty
reman
remed
##pled
##plug
embedded
leaky
elk
elroy
eligible
kinder
kindred
kinderg
thresh
thrills
##udo
cret
crust
crud
croon
cranes
aden
advers
adcox
swenson
partying
smir
smudge
macc
maura
hocker
##gett
shits
miners
minstrel
hiv
hippy
realistically
pertain
perks
pervers
perverse
perceptive
understan
##vedere
mona
monet
monuments
aces
acre
acula
missions
flake
floss
flores
flares
flirting
assail
assert
faust
##cio
playground
playback
##ogne
##ogens
##ogram
##ogues
startle
phr
pham
phoe
buses
disas
disast
ida
idol
idaho
##ondo
##ondition
##quist
##quiat
deadbeats
##taine
crain
crabb
tract
trappers
tomah
housekeeping
morg
moran
morse
headmaster
headlights
launce
##sheet
strut
interst
interstate
##anson
reson
resists
schof
schooly
parl
parap
paraly
paratr
parsons
wasnt
pretzel
pretentious
insurre
proc
boca
booted
yaw
##acent
##acomb
slink
slum
slang
slope
slither
slaps
slander
slapping
recap
recite
recomb
recipe
charmed
charnier
appropri
contents
divert
dialed
diabet
dioxide
wary
warhead
commies
commode
commute
commotion
whichever
huron
##rost
##rovert
turnover
breck
breached
personals
poles
polack
attire
glowing
businessmen
watchit
accum
fined
financed
##ggle
harley
harriman
harkonn
bested
triang
compact
composite
compieg
designing
##xton
caper
capra
capabilities
jacks
sitcom
farrell
schooling
surreal
paved
barb
barman
cuthbert
seniors
endured
holders
##anco
shoelaces
##ultz
jesuits
giang
babylon
edges
edvard
prescribe
damnation
thirties
##lings
excused
christoph
christopher
dolly
halford
decade
decode
decline
deciding
apric
gunning
gunnel
figment
figaro
dared
lawman
secondly
evade
relocated
skid
seti
sethe
complication
complicate
bedev
bedsoe
genetically
numerous
grabbing
aww
awards
awareness
obregon
##otti
##ugnant
frankfurt
##azin
##azine
##azzo
earning
earnings
jeze
passin
passages
passkey
shutup
confine
conform
confuses
configuration
airs
airk
airstri
colt
cologne
murman
heartbroken
lightly
lightweight
lightyear
doorbell
dreamin
explored
sykes
indign
indicated
indeter
indiffer
braver
bragg
brained
madrid
madrigal
consulate
consulting
bloodbath
stein
steals
delin
delaw
stark
starring
pullin
coral
faction
sender
sendin
blacked
blackheart
speaker
##nebago
detest
engraved
incarcer
firewood
firepower
firearms
depot
discrimin
sidekick
truthfully
buyers
##apple
sexist
collision
collabor
admits
messina
forgave
snick
snatched
retiring
salts
papal
strap
strait
defl
defined
defender
defenses
deflector
burma
burbank
calam
calriss
lateral
whitey
whitefoot
jimbo
artem
espar
sweets
droppings
curb
curry
concur
fallout
singin
winters
winnebago
legion
legions
redundant
redistrib
samantha
beatnik
bobbie
subter
subvers
submar
uncanny
uncondition
raf
raisin
satire
proportion
##umbles
belch
belvedere
musl
grego
greased
studios
refined
extend
extras
extinction
classmates
distaste
impolite
medall
medals
ballgame
transaction
bankers
colder
##rical
mistook
owning
owens
specialists
maryland
rundown
kev
psychos
psychologically
catchin
informants
entrusted
entrepr
jerky
jerking
nearer
felton
squal
hospitable
poppa
popeye
merde
typh
condolences
imagery
imaginary
freeman
operates
tote
beseech
vien
humanitarian
caul
wallop
lockdown
repugnant
learns
exceptions
michel
mouthful
##ocam
##ocate
##ocation
##ocrat
quickie
puritan
costing
##ounge
posing
palate
palaces
judicial
protector
considerably
considerations
cashing
casbah
virge
misle
misgu
misfits
pressuring
bask
basquiat
investing
feur
feud
sidetrack
sidelines
commanding
commanded
cryo
demer
##maids
upsets
swears
strick
kickin
packet
irth
irrational
##nese
drunks
suitor
soldado
hops
hopping
unclear
garc
garter
garters
enjoys
enjoyment
enjoyable
quitter
eyebr
cabot
cabana
cabbage
busts
sherm
destroyer
turley
turtles
ticks
denies
denny
motions
wedd
trucker
trucking
footprint
breathin
closure
ellingson
torches
detectors
arresting
fedex
formica
englishman
cataton
catacomb
cardinal
cardenas
communism
devour
devotion
190
19th
daitz
appreciates
borne
icey
icebox
boxers
woodwork
digger
screwdriver
dungeon
dunwitty
romans
boarded
visitation
nina
ninja
verified
vermin
veridian
germ
opposing
opponent
impressions
camille
rollers
rolltop
module
moderate
accepts
splits
macguff
fills
hygi
##iterate
southgl
requis
philharm
amaze
addresses
equity
equations
particle
preparations
cello
furry
correl
wildman
priceless
colorado
pardner
fielding
heavenly
appearing
appearances
gaspar
bowman
tracker
trackers
physic
definitive
summon
sensing
sensation
labour
recognizing
rounding
washroom
datura
holed
holier
holster
potent
potentially
potaters
extracur
clarissa
clarinet
terrence
earliest
admiring
admiration
raines
raincoat
depended
civic
tighten
sharon
trickery
##ographs
pinea
tarz
tapert
##cyte
francie
auton
politically
lament
lamagra
viewer
viewing
viewers
cupboard
ports
portray
rubs
skinner
skinned
leech
piled
##laim
ideals
yahoo
collectors
##rops
##rophe
brownie
griev
jani
janus
climbs
heavyweight
screamin
supported
routes
embarassing
dorsey
swimmer
receiver
recepta
repro
baloney
balint
balmoral
berger
archives
matching
authorization
duly
duquette
##affe
blinded
committees
bellmoth
speechless
precog
lucrative
titus
treehorn
scarin
scarred
crawls
martyr
lindgren
puget
puking
rapture
roberto
softly
scrunch
warmth
pathologist
virginal
ramsey
ramón
motherfuckin
airports
gangsters
sundown
swept
familiarity
grader
booger
ratio
laurent
rosy
venom
venison
complained
volcano
##headed
hawks
statistics
provoking
cypher
cyanide
mcclus
mcconn
rumours
hamburgers
touring
tournam
forecl
bugler
designated
drags
rabin
weights
hunts
wilma
wilfred
fanatic
fanelli
wisely
accordance
sneaky
revlon
revolt
shrunk
exec
snowing
snowman
patterson
reacting
stormy
bumper
bummer
kirby
nicola
corral
corrado
skylight
186
muther
villages
villagers
executives
expressly
puny
##genstein
unholy
depressive
quota
hilda
telephones
nutcase
nutshell
representatives
cubs
punchy
chapman
chapters
##boni
separation
tipto
wetter
thyself
defenseless
targeting
napal
magnitude
enterprises
fiasco
vulcans
mortg
155
faber
fabri
peeing
peeking
persian
##monary
processor
dispose
guarantees
pianist
pianos
shapeley
confirms
behavioral
improper
1200
spreads
mathew
tongues
##nnnn
chatting
dumpt
##aaaaa
renoir
siege
siegf
unsp
sedation
seducing
taber
##cloth
antique
beauregard
occurrence
halt
photographic
epic
giggle
gigolo
lorenson
implicate
implanted
montague
assumption
nineteenth
cynicism
rewarded
embry
bravely
temperatures
negotiable
deceiving
bangkok
hooper
##risy
##forward
hayse
padding
froze
rescind
astr
astute
asthma
gears
hobbies
mattie
ulcer
ulcers
widows
liberace
demanded
bartending
frau
whacko
stretching
inventor
cadets
dilig
dilithium
toilets
drowns
borderline
osc
##deus
educational
determination
pitches
affects
nationals
ribbons
predicament
barrytown
purser
constructed
buns
bungh
deact
dissatisf
candied
flattery
wednesdays
horrid
lunar
lacks
vitelli
nathanael
##ebag
##crack
conceivable
crushes
philosophers
tubbs
clinics
virtual
virtues
wanders
vessels
tasker
beefy
neatly
atlantis
wormhole
exercises
marched
proceeding
proceedings
reconc
rotation
hackers
cruelty
carpentry
cobra
kinship
oakwood
savvy
bridegroom
attendant
occupational
challenger
215
hesitated
mechanics
cliffs
scanlon
grossman
flags
flagged
hoods
stiffs
alteration
alienate
intentional
ultra
hauled
structural
captive
adjustments
alternatives
tribute
tribuus
salvador
dyed
dyson
racquet
raccoon
patriots
formerly
establishing
symbolic
biology
bulb
bulgar
deem
deejay
frivol
jenzen
##veston
rebuild
announced
cuisine
vintage
sprung
unpack
waitresses
schemes
documentation
tigers
harboring
trippin
democrat
surroundings
tattler
polls
slaughterhouse
obligated
columns
concerto
cowardice
bogan
bogart
bogyman
sabu
orchard
valentino
hitching
##crity
##cratic
concepts
schwarz
functional
subscribe
landscape
waltz
technicality
weirder
athlete
coronation
exceptionally
gillette
hutu
ingles
assembled
frequently
fondness
mandatory
nomination
unacc
stallion
neuro
neurosis
intimately
intimacy
cranky
strawberries
maintained
egos
sinclair
anchors
israelis
stunts
scouting
restrain
explorers
exploration
kristina
writings
wickedness
measured
##eeeeee
praised
exaggerated
wrestle
wrestled
grocer
exploited
sync
observant
observatory
dictator
reinstated
revealing
outlaws
granma
granville
crusades
##whati
idealism
idealistic
jellybean
mongol
tolerant
whitew
socked
selznick
caroline
possessions
blackmailer
survivor
fidelity
nitro
riddled
concluded
turkle
1972
1971
rehearsing
ichiro
mushy
odette
odessa
riots
##bags
brushes
tramps
fantasize
broadcasting
sabotaged
matthews
pencils
sicilian
reassigned
reassignment
havoc
contribute
commodore
translation
translated
repaired
historian
jacobi
aracht
cassandra
fuchs
pods
nostal
gullible
gulliver
bronze
1980
1984
cautiously
lamps
outsider
scholars
capitan
skillful
hallucination
scumbags
bunker
biocyte
dreary
dreyer
inhale
inhuman
intensely
cocoon
diagnost
1952
fiends
lysine
ponds
vagina
abduction
maneuvers
ensign
underestimated
slacking
drifted
indulgence
robberies
convicts
boosted
disgraceful
navigate
navigator
gazelle
rooster
tango
tangiers
sult
manipulate
manipulated
spanking
flaunt
simplicity
reformed
1945
sufficiently
scenarios
tibetan
3000
cinch
jasmine
##ihan
spooning
brassiere
twenties
flavors
depths
1995
thermal
dimensional
lanterns
manufactured
manufacturer
bienstock
henderson
ludwig
nudie
ratted
rattling
unwilling
eliminated
smeared
craziness
craziest
highlands
highlander
irresistible
irritate
immigrant
hypothetically
counterfeiting
baines
antonio
shagging
exorcist
enlightened
scalped
##ogenic
comprehension
jeopardy
demolished
obscure
exceeding
oriental
orientation
unlocked
vincenzo
overlooked
enthusiasm
coyote
hinkle
uneasy
welshman
fragments
accelerate
clemency
lumps
zombies
##keepsie
sumpter
waldman
hoffman
intercepted
endangered
distribut
squatting
vengeful
hypocrisy
flaemmchen
akron
fibers
fertile
hormone
hormones
##ranean
meyerling
unloaded
emerge
resurrect
metropolitan
colombo
tormenting
dishonest
categories
botany
munchkin
##101
heineken
stooge
##alleled
manslaughter
undertaken
newcomers
flunked
deserter
behaved
disclose
artificially
squirrel
squirrels
insecurity
keri
nipple
oyster
pimps
pansies
vanderhof
meadows
shabbas
forensic
spicoli
oversight
blooming
newlyweds
dissection
appeals
untouchables
awwww
electrified
sarcastic
variations
cheerleader
##ebrae
prosperous
tranquil
dwarfs
bixler
gatling
keefe
oberfeld
pestil
guerr
trespass
trespassing
intervention
inserted
christsakes
consistent
incorpor
incorrect
distinguished
mediocre
mediocrity
rupture
ruptured
freighter
cremated
grieve
grieving
ultimat
crocodiles
fernando
kwan
nauseous
pioneer
rapport
voters
aristotle
aristocrat
bubbles
persecut
desecration
espion
subdued
musketeers
ernest
erratic
squeezed
mobilize
gelatin
rolfe
xk101
##lichman
##lavia
reeks
ligourin
sunglasses
exhilar
spunky
twinkies
peerless
flintstone
proximity
sluggish
passwords
annihilation
imaginative
alexandria
berthier
pantyhose
acquisition
mulvaney
oooooh
luciano
craftsman
merchandising
borders
celest
nylons
paternity
zimmermann
ineff
hepburn
staggering
chubby
demented
arbitr
quellek
mundt
intolerable
lifeforms
elitist
travesty
lacerations
insolent
metallic
filmmaker
uncontroll
positronic
norwegian
oppression
lyndon
puzzles
ottos
tabloids
analytical
gynecologist
lazarus
accompanying
raspail
schizophrenic
wannabes
bavmorda
cullum
gulch
gavin
hologram
kooky
kenneth
lsd
ogre
pestering
riker
taiwan
vultures
voila
yengeese
thalaron
gospel
prolong
atheist
frenzy
brodsky
carcin
envelopes
moorings
unparalleled
maitre
perjury
fawcett
disadvantage
billiards
watermelon
repellent
disapproval
communicator
fatigued
prodigy
antigua
rebellion
skeletons
economics
burgundy
microchips
phenomenon
bazaar
hothead
kgb
poultry
ruckus
tutsi
vortex
##busters
##animous
inadequate
dossier
libyan
solemn
fratern
manfredi
clerks
clobber
cloverleaf
grouchy
longshanks
impediment
throbbing
paramedics
diabetic
giulia
relativity
confiscated
sylvie
starbucks
detachment
proprietor
miscarriage
catalyst
tapestries
urgently
coincidences
laundromat
rawlston
unacceptable
mercenary
czechoslovakia
metaphasic
embezzlement
vocabulary
videotapes
giovanni
ackerman
aquarium
cottage
eiffel
fennyman
gertrude
jankis
kutusov
kruger
kommand
krieger
lennon
mutha
mitzv
poughkeepsie
sattler
vinyl
vandalism
yugoslavia
zephram
thaddeus
reynard
doomsday
golitsyn
shalom
shampoo
shrapnel
myriad
neanderth
abyss
chigurh
saudi
ortega
fromberge
sphinx
spengler
trudell
overjoyed
pemberton
unethical
unannounced
unruly
unmarked
budington
gruesome
grotesque
kindergarten
threshold
phoebe
tomahawk
launcelot
schofield
schoolyard
insurrection
diabetes
compiegne
jezebel
indeterminate
delaware
incarceration
calrissian
esparza
submarine
gregoire
distasteful
entreprene
misguided
sidetracked
catacombs
hygiene
southglen
philharmonic
gasparilla
extracurricular
mcconnell
siegfried
